<pad>	0
<unk>	0
[CLS]	0
[SEP]	0
[MASK]	0
(	0
)	0
-	0
£	0
$	0
€	0
▁	-2.94116
▁de	-3.13249
,	-3.25177
.	-3.53665
'	-3.56609
▁la	-3.83719
s	-3.96788
▁et	-4.08469
▁le	-4.15273
▁l	-4.25334
▁à	-4.25385
▁en	-4.43127
▁d	-4.53966
▁du	-4.59065
▁des	-4.62313
▁est	-4.68299
▁les	-4.70114
▁un	-5.05417
▁dans	-5.10851
▁par	-5.17421
▁une	-5.20333
▁au	-5.28712
▁"	-5.29986
"	-5.34053
’	-5.35555
▁pour	-5.41174
e	-5.5125
▁qui	-5.52909
▁Le	-5.57385
▁a	-5.61462
▁il	-5.6529
▁sur	-5.6952
▁que	-5.70544
▁Il	-5.77646
▁son	-5.83701
▁La	-5.8426
▁avec	-5.85278
▁se	-5.90405
▁plus	-6.02285
▁sont	-6.08685
▁:	-6.10815
▁En	-6.11306
un	-6.21798
▁sa	-6.22421
a	-6.28905
▁qu	-6.30707
▁L	-6.33342
est	-6.34443
▁ou	-6.36716
▁Les	-6.36888
▁été	-6.38384
▁«	-6.40148
▁aux	-6.40864
une	-6.42487
▁comme	-6.49949
r	-6.52006
▁ce	-6.52537
▁s	-6.58675
▁ses	-6.58692
▁deux	-6.59428
il	-6.60742
en	-6.60825
▁pas	-6.66249
es	-6.68864
▁ne	-6.75626
▁fait	-6.78379
▁n	-6.78413
▁elle	-6.81041
▁mais	-6.81768
",	-6.843
▁»	-6.84907
▁entre	-6.85742
▁Elle	-6.87075
▁cette	-6.88372
▁ont	-6.89859
nt	-6.92632
▁sous	-6.99031
▁lui	-7.01265
y	-7.03062
o	-7.05263
▁leur	-7.09754
▁C	-7.10402
▁dont	-7.13932
▁était	-7.15203
▁même	-7.16892
▁également	-7.16987
▁où	-7.17102
t	-7.17521
▁fut	-7.19932
on	-7.21118
▁aussi	-7.23479
▁ainsi	-7.23822
▁alors	-7.2486
▁après	-7.26378
▁nom	-7.27346
▁France	-7.27644
▁premier	-7.28243
i	-7.29815
er	-7.30813
".	-7.31801
▁première	-7.32968
ment	-7.33595
▁partie	-7.35262
▁;	-7.36125
▁ville	-7.36546
▁lors	-7.38343
▁être	-7.38538
▁ans	-7.38562
▁Saint	-7.39177
à	-7.39363
▁puis	-7.40638
▁À	-7.41682
▁De	-7.41943
▁contre	-7.42458
le	-7.43465
▁peut	-7.4353
d	-7.44426
▁commune	-7.46609
▁y	-7.46619
é	-7.47518
l	-7.48309
▁trois	-7.48795
▁années	-7.49707
▁depuis	-7.51803
▁jusqu	-7.52105
de	-7.52361
▁groupe	-7.54351
▁plusieurs	-7.55499
in	-7.56643
▁%	-7.57308
▁ces	-7.57795
▁Cette	-7.59283
ci	-7.61592
▁très	-7.61672
▁Dans	-7.62004
▁fin	-7.6339
▁avant	-7.64982
▁S	-7.65151
▁D	-7.65656
▁Ce	-7.66297
▁vers	-7.66659
▁fois	-7.67204
▁Au	-7.68045
▁c	-7.69422
▁français	-7.69447
▁mort	-7.69775
▁tout	-7.70184
▁Paris	-7.71157
n	-7.7194
ra	-7.73784
;	-7.76701
▁famille	-7.76813
et	-7.78241
▁notamment	-7.78506
▁monde	-7.79272
▁sans	-7.7978
▁saison	-7.80056
▁place	-7.8062
elle	-7.807
▁né	-7.81331
▁A	-7.82637
ne	-7.83105
▁avait	-7.83537
it	-7.84605
▁Après	-7.84673
ant	-7.85209
▁pays	-7.86417
▁».	-7.8668
▁sud	-7.86742
▁suite	-7.86846
▁Jean	-7.86853
▁temps	-7.8718
▁nord	-7.87332
A	-7.87775
▁autres	-7.8817
au	-7.88695
▁Sa	-7.89013
la	-7.89118
▁avoir	-7.89132
▁région	-7.90898
▁on	-7.91186
c	-7.91277
▁bien	-7.91953
▁Un	-7.93098
▁Son	-7.93628
▁cours	-7.93675
▁partir	-7.93717
▁2	-7.94133
▁faire	-7.95484
▁devient	-7.95511
▁titre	-7.95672
▁encore	-7.96774
▁lieu	-7.97445
▁leurs	-7.97631
▁États	-7.98872
autres	-7.99123
▁nouveau	-7.99989
▁Une	-8.00261
▁pendant	-8.01331
▁tous	-8.01532
z	-8.02466
▁guerre	-8.02649
▁début	-8.02867
▁général	-8.03045
eau	-8.0324
▁quatre	-8.03336
al	-8.04054
or	-8.04513
▁non	-8.05134
▁film	-8.05204
▁peu	-8.05367
▁moins	-8.05383
k	-8.05479
▁située	-8.05494
▁soit	-8.06322
▁grand	-8.06453
▁3	-8.06833
ou	-8.06887
1	-8.07483
▁série	-8.07995
▁On	-8.09142
Unis	-8.09224
▁politique	-8.09449
▁M	-8.09652
an	-8.10115
▁grande	-8.1087
h	-8.11421
▁vie	-8.12016
▁française	-8.12373
▁donc	-8.1275
▁B	-8.12823
▁celui	-8.12919
2	-8.13061
m	-8.13507
▁village	-8.13774
▁nombre	-8.14766
/	-8.15471
État	-8.16602
▁»,	-8.17104
▁forme	-8.17599
▁ligne	-8.17617
▁celle	-8.17817
▁nouvelle	-8.17866
re	-8.17985
▁tard	-8.18091
▁Pour	-8.18357
▁quelques	-8.18474
▁club	-8.18555
S	-8.18821
C	-8.1942
us	-8.1952
équipe	-8.19719
na	-8.2007
▁trouve	-8.2154
▁ensuite	-8.21942
▁selon	-8.22415
être	-8.22755
▁situé	-8.23107
▁si	-8.23387
▁T	-8.23493
▁population	-8.23609
L	-8.23645
u	-8.23801
▁4	-8.24156
▁car	-8.24523
▁fils	-8.24574
▁dernier	-8.24957
▁deuxième	-8.25401
ouest	-8.25963
▁15	-8.2692
▁part	-8.27879
▁centre	-8.2843
année	-8.28479
:	-8.28946
▁nombreux	-8.29089
el	-8.29372
▁1	-8.29864
g	-8.2988
▁département	-8.30797
origine	-8.3129
▁tour	-8.32264
ur	-8.32389
▁gouvernement	-8.32825
▁tant	-8.32937
▁roi	-8.32941
▁mois	-8.33467
▁Par	-8.33914
▁près	-8.33962
▁face	-8.34486
▁ils	-8.34546
La	-8.35071
▁président	-8.35147
▁P	-8.3524
te	-8.3527
x	-8.35415
b	-8.35495
▁cas	-8.36311
is	-8.36763
▁chez	-8.37106
▁compte	-8.37306
▁père	-8.3751
histoire	-8.37588
▁permet	-8.37596
▁F	-8.37733
▁étaient	-8.37927
▁Ces	-8.38902
▁I	-8.40134
▁nationale	-8.40499
Le	-8.4061
▁reste	-8.40692
ait	-8.40879
f	-8.41858
man	-8.42252
▁étant	-8.42502
▁afin	-8.4251
▁5	-8.4273
▁durant	-8.42758
▁chef	-8.42881
▁carrière	-8.43241
▁autre	-8.43377
▁souvent	-8.43788
aux	-8.4415
ta	-8.44297
▁16	-8.44832
▁année	-8.45215
▁nommé	-8.46308
▁période	-8.46358
▁of	-8.46485
▁doit	-8.46576
p	-8.46661
▁ayant	-8.47018
▁prend	-8.47206
art	-8.47381
▁projet	-8.47961
▁G	-8.48227
▁jour	-8.48343
▁point	-8.48381
▁membre	-8.48733
né	-8.48799
▁rôle	-8.48837
église	-8.49878
les	-8.50153
▁chaque	-8.50438
hui	-8.50696
▁national	-8.50755
▁10	-8.5132
▁service	-8.51516
▁rue	-8.51603
▁Mais	-8.51611
▁Des	-8.51716
▁membres	-8.51841
▁société	-8.51967
▁présente	-8.52392
▁niveau	-8.52416
▁14	-8.52569
▁J	-8.52672
▁cinq	-8.52924
da	-8.53188
▁sera	-8.53578
▁Nord	-8.53694
▁territoire	-8.5409
B	-8.54324
▁américain	-8.54561
▁toujours	-8.54819
▁peuvent	-8.54883
▁jeu	-8.55013
▁toute	-8.55059
ée	-8.55307
▁système	-8.55335
▁espèce	-8.55812
▁17	-8.55978
▁dès	-8.56003
▁E	-8.56298
▁R	-8.56324
3	-8.56392
▁troisième	-8.56925
▁droit	-8.57016
ent	-8.57041
▁mondiale	-8.57194
▁in	-8.57376
▁habitants	-8.57434
▁6	-8.57617
▁match	-8.58185
armée	-8.58799
▁poste	-8.59104
D	-8.59211
▁communes	-8.59418
ton	-8.59584
▁Ils	-8.59659
▁V	-8.60006
▁effet	-8.60291
▁N	-8.60684
ia	-8.60739
▁porte	-8.60818
▁site	-8.61123
▁nombreuses	-8.61139
▁rapport	-8.61282
▁12	-8.61336
▁cet	-8.61546
▁premiers	-8.61686
at	-8.6169
▁ré	-8.6181
▁long	-8.6182
ma	-8.62158
▁Sud	-8.62173
▁re	-8.62214
ing	-8.62305
▁toutes	-8.62363
▁Louis	-8.62401
▁sein	-8.62407
▁Lors	-8.62448
▁environ	-8.62526
▁travail	-8.62756
▁exemple	-8.62767
▁jours	-8.62965
époque	-8.63045
▁certains	-8.63074
ch	-8.63543
▁succès	-8.63914
▁personnes	-8.64348
ine	-8.644
me	-8.64436
▁Si	-8.65024
▁principale	-8.65225
▁championnat	-8.65402
▁château	-8.65804
▁tête	-8.65824
T	-8.65951
▁musique	-8.66064
I	-8.66132
▁Guerre	-8.66132
E	-8.66154
▁K	-8.66224
▁Du	-8.66226
université	-8.6636
...	-8.6669
▁jeune	-8.66872
▁raison	-8.66926
▁province	-8.67102
▁construction	-8.67378
▁grâce	-8.67556
▁Selon	-8.67598
▁connu	-8.67633
▁prix	-8.67874
O	-8.68442
▁maison	-8.68479
▁13	-8.68724
▁développement	-8.69275
▁Charles	-8.69547
▁│	-8.69604
▁Grand	-8.69934
no	-8.70015
▁Pierre	-8.70087
4	-8.70197
agit	-8.70261
ie	-8.70408
▁laquelle	-8.70472
▁points	-8.70485
ils	-8.70625
▁remporte	-8.70753
▁joue	-8.71345
▁pouvoir	-8.71492
▁II	-8.71883
▁rencontre	-8.71913
▁participe	-8.71931
▁but	-8.72503
▁fille	-8.72762
▁base	-8.72835
▁finale	-8.73082
▁New	-8.73307
▁enfants	-8.73419
▁création	-8.73716
▁furent	-8.73821
autre	-8.7395
▁public	-8.74093
▁femme	-8.74422
v	-8.74464
▁production	-8.74648
P	-8.74679
même	-8.7547
▁mise	-8.75664
▁demi	-8.75915
▁Depuis	-8.76043
▁corps	-8.76154
▁seul	-8.76263
ensemble	-8.76399
ka	-8.76577
ar	-8.76795
▁dernière	-8.76972
H	-8.77097
île	-8.77274
▁ministre	-8.77495
▁mis	-8.77641
▁O	-8.77652
▁commence	-8.77673
▁écrit	-8.77752
▁7	-8.77909
▁plan	-8.7856
▁album	-8.78579
to	-8.78615
ation	-8.78643
▁six	-8.7899
▁études	-8.79026
▁côté	-8.79122
▁20	-8.79154
son	-8.79363
▁date	-8.79578
sur	-8.79741
&	-8.80036
▁football	-8.80129
age	-8.8013
ce	-8.8032
▁ceux	-8.80342
ville	-8.8045
17	-8.80638
▁va	-8.80694
du	-8.80839
6	-8.80932
▁passe	-8.8094
G	-8.81064
▁Coupe	-8.81119
▁route	-8.81172
▁direction	-8.81286
▁devant	-8.81433
abord	-8.81567
▁déjà	-8.81773
▁petit	-8.81804
▁joueur	-8.81986
F	-8.82123
um	-8.82172
▁Al	-8.82476
▁hommes	-8.82505
▁terme	-8.82541
os	-8.82822
▁travaux	-8.82985
Europe	-8.83249
▁retour	-8.84084
j	-8.84168
▁version	-8.84242
▁formation	-8.84412
▁loi	-8.84464
▁siège	-8.84478
M	-8.84705
▁type	-8.8471
▁dit	-8.85227
▁militaire	-8.85566
eur	-8.85845
▁homme	-8.85872
▁chanson	-8.85952
▁dé	-8.85979
▁eu	-8.86103
ont	-8.8616
album	-8.86355
▁République	-8.86747
après	-8.86903
▁8	-8.87107
co	-8.87124
K	-8.87571
▁produit	-8.87788
▁particulier	-8.87973
▁sorti	-8.88164
▁milieu	-8.88414
▁communauté	-8.88534
di	-8.88951
▁beaucoup	-8.8905
ni	-8.89084
▁formula	-8.89179
▁second	-8.89202
▁donne	-8.89309
▁H	-8.89489
▁zone	-8.89633
▁Cependant	-8.89708
▁utilisé	-8.89803
▁parti	-8.89842
▁femmes	-8.8996
amp	-8.90011
▁publié	-8.90155
▁seulement	-8.90354
▁tandis	-8.90543
ro	-8.90735
ge	-8.90892
▁font	-8.9109
▁réalisé	-8.91115
que	-8.91347
▁cause	-8.91373
ca	-8.91386
ordre	-8.9146
▁co	-8.9148
▁aujourd	-8.91601
▁Ses	-8.91614
▁parmi	-8.91673
▁genre	-8.91721
▁John	-8.91724
th	-8.91866
▁recherche	-8.91911
▁parfois	-8.92222
▁obtient	-8.92383
▁Re	-8.92417
▁cadre	-8.92486
▁équipe	-8.92513
âge	-8.92833
▁scène	-8.9302
▁liste	-8.93024
▁11	-8.93212
▁suivante	-8.93476
▁Paul	-8.93624
▁créé	-8.94063
▁livre	-8.94336
ré	-8.9468
▁division	-8.94709
▁directeur	-8.9487
ga	-8.95028
▁élections	-8.95041
▁m	-8.9507
té	-8.95165
▁9	-8.95222
▁fonction	-8.95252
ier	-8.95363
▁réseau	-8.95369
▁différents	-8.95462
▁bataille	-8.95502
▁dix	-8.95787
▁Sur	-8.95872
▁roman	-8.96008
▁San	-8.96089
▁cependant	-8.96104
lt	-8.96409
ry	-8.9642
▁mouvement	-8.96586
école	-8.96733
▁ancien	-8.96736
aire	-8.96974
▁rivière	-8.97009
ri	-8.97025
▁millions	-8.97145
▁rejoint	-8.97392
▁The	-8.97459
▁surtout	-8.97503
▁mère	-8.97666
5	-8.97679
▁britannique	-8.97873
w	-8.97917
▁demande	-8.98112
▁seconde	-8.98288
▁plupart	-8.98316
▁York	-8.98681
ard	-8.98722
▁autour	-8.98816
▁Avec	-8.98962
▁frère	-8.99095
ck	-8.9915
li	-8.99306
èrent	-8.99326
The	-8.99558
18	-8.99812
do	-8.99854
▁manière	-9.00325
▁principalement	-9.0049
▁petite	-9.00743
▁haut	-9.00976
iste	-9.01068
R	-9.01246
▁mer	-9.01255
aient	-9.01316
▁domaine	-9.01332
▁style	-9.01464
isme	-9.01469
▁marque	-9.01708
▁the	-9.01825
▁grands	-9.02023
▁international	-9.02085
▁anglais	-9.02178
▁fer	-9.02184
▁Co	-9.02198
▁langue	-9.02461
▁mesure	-9.02522
▁an	-9.0321
▁seule	-9.03224
▁Tour	-9.03293
▁aurait	-9.03294
▁lequel	-9.03327
était	-9.03537
és	-9.03919
▁W	-9.03979
ex	-9.04126
▁quartier	-9.04154
été	-9.04321
ir	-9.04465
▁reçoit	-9.04577
qui	-9.05014
▁Parti	-9.0538
0	-9.05391
▁élu	-9.05393
▁américaine	-9.05685
▁victoire	-9.05697
ter	-9.05707
▁juin	-9.05859
▁Conseil	-9.05871
N	-9.05917
▁épouse	-9.05922
▁moment	-9.0599
▁François	-9.06083
Université	-9.06167
▁travers	-9.06437
▁différentes	-9.06441
▁bois	-9.06486
▁propre	-9.0656
gt	-9.06618
ner	-9.06685
go	-9.06804
▁équipes	-9.06875
▁gare	-9.06961
▁mai	-9.06961
▁2006	-9.06963
▁jamais	-9.07033
▁comté	-9.07125
▁conseil	-9.07229
▁finalement	-9.07233
▁suivant	-9.0732
▁gauche	-9.07499
▁appelé	-9.075
V	-9.07545
▁Marie	-9.07614
▁eux	-9.07634
▁Jeux	-9.0837
▁possède	-9.08472
▁Ligue	-9.08596
▁canton	-9.0866
▁important	-9.08924
▁donné	-9.08949
▁classe	-9.0898
▁née	-9.09187
▁certaines	-9.09415
▁lorsque	-9.09568
▁moyenne	-9.09613
ti	-9.09718
▁présence	-9.09907
▁premières	-9.09931
▁quand	-9.09949
▁existe	-9.10242
▁allemand	-9.10514
Union	-9.10588
▁met	-9.10594
▁référence	-9.10679
▁sort	-9.10732
mi	-9.10786
U	-9.10945
ve	-9.11199
▁principal	-9.11205
16	-9.11346
▁–	-9.11355
▁2000	-9.11414
ac	-9.11428
▁septembre	-9.11438
▁position	-9.12182
ot	-9.12267
▁ceinture	-9.12499
der	-9.12583
▁cela	-9.12678
▁voit	-9.12747
▁Ainsi	-9.12942
▁nouvelles	-9.13063
▁Robert	-9.13112
▁Canada	-9.13189
▁mars	-9.13285
▁compagnie	-9.13792
▁juillet	-9.14439
▁pré	-9.14565
▁construit	-9.14838
▁Ar	-9.14889
▁2005	-9.15197
▁classement	-9.15213
▁Mont	-9.15283
▁&	-9.15336
land	-9.15417
▁matchs	-9.15633
▁parc	-9.15796
▁décide	-9.15846
▁retrouve	-9.16007
Les	-9.1604
mer	-9.16065
▁généralement	-9.16166
▁professeur	-9.16244
▁terre	-9.16665
▁Mar	-9.16958
ient	-9.17036
▁termine	-9.17245
▁Ma	-9.17346
▁départ	-9.17639
▁composé	-9.17719
▁Z	-9.17725
▁rapidement	-9.17798
chi	-9.17824
▁jeunes	-9.17852
ad	-9.18017
▁grandes	-9.18799
▁troupes	-9.1881
▁and	-9.18858
▁avaient	-9.18859
▁façon	-9.18884
▁œuvre	-9.18986
ed	-9.19178
▁voie	-9.19256
▁meilleur	-9.19403
ver	-9.19567
▁Japon	-9.19621
▁Jacques	-9.19715
▁auprès	-9.20054
▁bâtiment	-9.20068
▁contrôle	-9.20112
▁compétition	-9.20177
be	-9.20444
br	-9.20693
▁annonce	-9.2071
ke	-9.2074
▁Comme	-9.20783
▁programme	-9.20812
8	-9.2082
▁créée	-9.2085
▁théâtre	-9.20945
▁importante	-9.21102
▁Londres	-9.2113
▁tels	-9.21387
auteur	-9.21551
▁sept	-9.21599
▁comprend	-9.21691
va	-9.21963
▁mètres	-9.22039
▁résultats	-9.22048
▁œuvres	-9.22241
▁30	-9.22322
▁atteint	-9.22526
▁elles	-9.22527
▁vue	-9.22534
▁prendre	-9.2272
ancien	-9.22974
▁ni	-9.23069
rie	-9.23293
▁groupes	-9.23379
▁course	-9.23486
▁campagne	-9.23534
▁janvier	-9.23574
▁internationale	-9.23837
▁sortie	-9.23929
▁district	-9.24039
▁possible	-9.24055
aide	-9.24066
▁serait	-9.24155
▁découvert	-9.24259
ique	-9.24541
▁Rome	-9.24552
▁meurt	-9.24647
▁proche	-9.24962
▁décembre	-9.24965
ion	-9.25185
▁comte	-9.2535
▁culture	-9.25463
▁Québec	-9.25554
ba	-9.25743
▁sens	-9.25805
▁musée	-9.26048
▁Nouvelle	-9.2611
ja	-9.26206
ux	-9.26221
▁pris	-9.26315
▁etc	-9.26376
▁cinéma	-9.2643
J	-9.26601
Est	-9.26602
▁combat	-9.26668
▁époque	-9.26724
par	-9.2676
che	-9.26857
▁novembre	-9.26947
am	-9.26978
▁18	-9.26983
particulièrement	-9.27002
▁total	-9.27038
W	-9.27176
mo	-9.27294
pa	-9.27339
▁Pendant	-9.27422
ley	-9.27433
▁droite	-9.27538
lé	-9.27572
▁pro	-9.27619
ki	-9.2771
▁espèces	-9.27764
▁Grande	-9.27796
▁octobre	-9.27905
▁double	-9.27972
▁con	-9.2804
▁municipalité	-9.28045
▁capitale	-9.28088
▁semble	-9.28138
▁ailleurs	-9.28273
ées	-9.28293
▁U	-9.28325
▁Val	-9.28332
lo	-9.28987
▁El	-9.29026
▁supérieur	-9.29075
Allemagne	-9.29097
▁Cet	-9.2914
▁Pays	-9.2974
▁voix	-9.29974
▁services	-9.2999
▁celles	-9.30141
▁Bar	-9.30211
ly	-9.30365
▁mal	-9.30433
15	-9.30483
▁populaire	-9.30531
▁Henri	-9.30662
pe	-9.30735
▁nous	-9.30796
ic	-9.30934
▁large	-9.30978
ko	-9.31031
▁faisant	-9.31128
▁forces	-9.31292
▁modèle	-9.31349
▁économique	-9.31435
▁personnage	-9.31531
▁station	-9.31588
ère	-9.31627
▁Chine	-9.3171
▁X	-9.31755
▁politiques	-9.31866
dire	-9.31874
▁nouveaux	-9.32038
▁Car	-9.32155
▁fort	-9.32539
▁lac	-9.32877
▁produits	-9.32971
▁pu	-9.33471
▁films	-9.33482
im	-9.3364
▁Durant	-9.33879
▁passage	-9.33982
▁ex	-9.34305
▁bas	-9.34359
st	-9.34373
ha	-9.34381
▁trop	-9.34393
homme	-9.34411
▁assez	-9.34515
▁rend	-9.34631
▁droits	-9.3474
▁russe	-9.34848
œuvre	-9.34895
▁historique	-9.34928
▁In	-9.34986
▁villes	-9.34986
as	-9.3527
▁situe	-9.35424
▁signe	-9.35443
objet	-9.3545
▁Europe	-9.35517
état	-9.35524
▁contrat	-9.35721
▁août	-9.35753
▁centrale	-9.35811
ale	-9.35904
▁situation	-9.36055
▁fit	-9.36124
7	-9.36141
▁journal	-9.36165
▁Bien	-9.3619
occasion	-9.36548
▁Michel	-9.36654
▁critique	-9.36754
▁chemin	-9.36943
argent	-9.37031
▁charge	-9.37064
dé	-9.37109
▁pont	-9.37197
▁avril	-9.37223
▁astéroïde	-9.37246
nes	-9.37247
▁Seconde	-9.37328
lin	-9.37447
▁cour	-9.3753
▁huit	-9.37584
10	-9.37642
▁champion	-9.3775
▁taux	-9.37799
▁kilomètres	-9.3783
tte	-9.37928
honneur	-9.37951
tu	-9.38058
▁mettre	-9.38186
▁taille	-9.38191
air	-9.38305
▁publie	-9.38514
▁25	-9.38782
id	-9.38835
if	-9.38939
ber	-9.38959
Empire	-9.38991
▁libre	-9.39009
▁joueurs	-9.39034
▁Russie	-9.39091
«	-9.39251
▁ensemble	-9.39429
▁Royaume	-9.39507
elles	-9.39509
▁personne	-9.39522
▁III	-9.39525
▁Deux	-9.39665
▁Se	-9.39691
▁Bo	-9.39874
▁terrain	-9.39918
se	-9.39928
▁données	-9.40011
able	-9.40034
▁lorsqu	-9.40245
▁activités	-9.40263
▁quatrième	-9.40298
▁vit	-9.40324
▁quitte	-9.40494
▁David	-9.40573
astéroïdes	-9.40637
▁devenu	-9.40657
▁mission	-9.408
▁rouge	-9.40858
▁Mo	-9.40959
eux	-9.41028
▁Belgique	-9.41057
tra	-9.41058
▁anti	-9.41189
▁2011	-9.41253
▁reçu	-9.4128
▁travaille	-9.41388
▁sol	-9.41504
▁devenir	-9.41525
▁bord	-9.41561
Al	-9.41598
▁2009	-9.41744
mar	-9.42053
avoir	-9.42135
Ar	-9.42155
▁principaux	-9.42196
ana	-9.42623
▁olympiques	-9.42654
▁majorité	-9.42665
▁vient	-9.4267
grand	-9.42682
▁générale	-9.4291
▁Joseph	-9.42927
▁technique	-9.42946
▁marché	-9.43199
▁européenne	-9.43498
▁di	-9.43654
▁simple	-9.43676
▁savoir	-9.43748
▁connue	-9.43804
▁Sainte	-9.43855
▁Or	-9.43876
▁salle	-9.44272
ité	-9.44316
▁publique	-9.44337
▁désormais	-9.44457
ul	-9.44501
▁—	-9.44559
▁surface	-9.44629
▁février	-9.44682
▁aucun	-9.44687
Espagne	-9.44786
▁St	-9.44843
▁plutôt	-9.44844
▁24	-9.44917
▁ancienne	-9.4494
▁compris	-9.44949
▁allemande	-9.44962
▁saint	-9.45104
▁valeur	-9.45108
▁port	-9.45126
▁vingt	-9.45148
▁aucune	-9.45204
▁Pologne	-9.45212
▁permettant	-9.45242
entre	-9.4528
wa	-9.45354
ancienne	-9.45445
▁divers	-9.45476
▁titres	-9.45516
Ouest	-9.45586
ement	-9.45588
ina	-9.45668
za	-9.45792
]	-9.45875
▁mot	-9.45885
▁unique	-9.45944
▁voir	-9.46178
École	-9.462
entreprise	-9.46241
▁télévision	-9.46441
rait	-9.46461
▁apparaît	-9.46618
▁faut	-9.4671
entrée	-9.46715
Italie	-9.46839
▁No	-9.46871
▁célèbre	-9.46877
▁bande	-9.46931
▁pièces	-9.47014
intérieur	-9.472
▁représente	-9.4724
▁Go	-9.47489
▁Ca	-9.47511
▁pratique	-9.47571
ov	-9.47628
▁malgré	-9.47645
▁considéré	-9.47692
ut	-9.47773
▁chapelle	-9.479
▁maire	-9.48002
▁nuit	-9.48065
vi	-9.4815
▁représentant	-9.48154
▁historiques	-9.48191
Uni	-9.4822
▁force	-9.4825
▁vallée	-9.48273
▁siècle	-9.48275
▁éléments	-9.48325
▁Me	-9.4835
environ	-9.48361
▁Per	-9.4854
▁Ne	-9.4855
des	-9.48557
mont	-9.48639
▁vidéo	-9.48671
ins	-9.48699
▁Philippe	-9.48896
action	-9.49204
▁prise	-9.49361
▁2010	-9.49366
▁Prix	-9.49502
▁radio	-9.49584
▁sécurité	-9.49627
Église	-9.49648
▁heures	-9.49683
▁peintre	-9.49956
▁source	-9.50099
den	-9.50109
▁italien	-9.50266
administration	-9.50272
▁propose	-9.50276
ai	-9.50299
▁tournoi	-9.50315
▁presse	-9.50329
▁passé	-9.50333
▁soutien	-9.50387
▁moyen	-9.50396
▁Parmi	-9.50629
▁sujet	-9.50766
ure	-9.50861
▁Centre	-9.50898
▁structure	-9.51031
▁Ta	-9.51087
▁Con	-9.5112
em	-9.51142
▁lignes	-9.51411
▁19	-9.51511
▁qualité	-9.51529
▁duc	-9.51583
▁2010,	-9.51619
▁livres	-9.51654
▁moitié	-9.51794
▁derniers	-9.51881
▁santé	-9.52053
▁axe	-9.52076
▁mariage	-9.5215
12	-9.52186
▁maître	-9.52344
▁royaume	-9.52372
▁100	-9.52374
▁Cour	-9.52385
▁jeux	-9.52496
▁longue	-9.52519
dessus	-9.52542
▁commerce	-9.52731
▁conditions	-9.5277
▁Man	-9.52797
urs	-9.52801
ze	-9.52828
▁recensement	-9.531
▁sciences	-9.53112
organisation	-9.53236
Institut	-9.53422
▁nature	-9.53538
▁décrit	-9.53545
▁police	-9.5355
▁question	-9.53573
▁presque	-9.53621
▁50	-9.53657
▁proximité	-9.53695
▁certain	-9.53883
Afrique	-9.53891
▁Suisse	-9.53892
▁Di	-9.53902
ger	-9.53945
▁Pro	-9.53983
▁Dès	-9.54007
▁fondé	-9.54093
élection	-9.54198
▁2012	-9.54366
▁reprises	-9.544
▁chaîne	-9.54476
▁Plus	-9.54482
▁Pi	-9.54483
édition	-9.54513
▁voïvodie	-9.54544
▁naissance	-9.54604
Angleterre	-9.54689
isation	-9.54733
ler	-9.54892
▁FC	-9.54949
▁vice	-9.54969
▁continue	-9.5497
▁fondée	-9.5498
▁main	-9.54991
▁présent	-9.55073
▁longueur	-9.55136
▁zones	-9.55216
tre	-9.55307
▁catholique	-9.55307
née	-9.55387
▁réalise	-9.55501
▁transport	-9.55508
▁défense	-9.55586
▁Na	-9.5563
▁forte	-9.55737
▁outre	-9.55742
▁traité	-9.55812
▁prince	-9.55821
▁camp	-9.55863
ak	-9.55969
▁Société	-9.55969
▁mode	-9.56065
▁Ben	-9.56095
▁personnages	-9.56319
▁député	-9.56395
▁vitesse	-9.56438
bi	-9.56596
▁2014	-9.56599
▁comptait	-9.56661
▁montre	-9.56676
▁faible	-9.56749
▁section	-9.56899
ya	-9.57287
▁km	-9.57298
qu	-9.57299
▁secteur	-9.57413
▁21	-9.57437
▁al	-9.57447
émission	-9.57502
▁médaille	-9.57509
▁buts	-9.57596
▁doivent	-9.57632
con	-9.57763
▁coup	-9.57857
▁protection	-9.57872
don	-9.58001
bo	-9.58057
Z	-9.5826
▁relations	-9.58476
▁22	-9.58531
▁Po	-9.58598
▁clubs	-9.58832
▁article	-9.58835
arrivée	-9.58937
▁côtés	-9.59059
▁Ha	-9.59089
▁utilisée	-9.59216
▁appelée	-9.59223
▁Ver	-9.59314
vis	-9.5932
▁Première	-9.59321
▁fonctions	-9.59355
▁voyage	-9.59357
▁Bou	-9.59529
▁Martin	-9.59677
▁Be	-9.59793
▁Ko	-9.59813
▁terres	-9.59838
▁moteur	-9.59958
abbaye	-9.59971
▁circonscription	-9.60003
▁Cha	-9.6005
▁2008	-9.60163
▁George	-9.60359
Académie	-9.60383
▁2011,	-9.60391
▁Club	-9.60497
ol	-9.60511
▁haute	-9.60532
Saint	-9.60679
▁composée	-9.6085
▁vol	-9.60879
▁William	-9.60965
▁secrétaire	-9.61032
▁joué	-9.6109
▁bon	-9.61095
▁latin	-9.61259
▁capitaine	-9.61449
▁toutefois	-9.61516
sa	-9.61564
▁dispose	-9.61585
▁régime	-9.61638
per	-9.61818
▁mi	-9.61877
11	-9.6188
▁So	-9.61908
▁minutes	-9.61916
▁Championnat	-9.62059
▁probablement	-9.62077
▁reprend	-9.62121
▁concernant	-9.62173
ons	-9.6224
▁Ba	-9.62296
▁enfin	-9.62318
▁Thomas	-9.62373
▁petits	-9.62453
▁""	-9.62593
▁pièce	-9.62643
ron	-9.62656
▁parties	-9.62854
▁texte	-9.62867
▁régions	-9.62886
val	-9.62917
14	-9.62943
▁artistes	-9.63012
▁classé	-9.63108
▁chansons	-9.63197
dy	-9.63281
ailleurs	-9.63301
▁jouer	-9.63338
▁professionnel	-9.6337
▁anciens	-9.63494
▁chargé	-9.63522
▁ministère	-9.63602
▁figure	-9.63624
9	-9.63701
▁cité	-9.63724
▁2007	-9.6384
enseignement	-9.63898
▁créer	-9.63902
▁sociale	-9.64001
ite	-9.64023
▁suit	-9.64163
▁localité	-9.64221
association	-9.64305
ek	-9.64307
▁Terre	-9.64315
▁Vi	-9.64383
ez	-9.64389
▁fond	-9.64392
▁couleur	-9.64423
▁pierre	-9.64436
▁To	-9.64571
gi	-9.6471
▁Entre	-9.64751
ais	-9.64779
▁blanc	-9.64803
▁gestion	-9.6482
▁vu	-9.64923
Bas	-9.65022
up	-9.65102
men	-9.65109
X	-9.65163
▁23	-9.65231
▁constitue	-9.6525
▁diverses	-9.6533
mann	-9.65362
use	-9.65411
▁théorie	-9.65425
empereur	-9.65481
▁nommée	-9.655
▁pourrait	-9.65624
cha	-9.65628
vin	-9.6563
▁statut	-9.65713
▁2015	-9.65797
▁catégorie	-9.65798
jo	-9.65853
idée	-9.65932
ette	-9.65973
ino	-9.66106
lu	-9.66138
▁Dé	-9.66141
▁militaires	-9.66153
▁tournée	-9.66156
▁tableau	-9.66232
espace	-9.66346
gen	-9.66364
ante	-9.66408
▁2015,	-9.66416
▁numéro	-9.6649
▁central	-9.66502
▁Ka	-9.66589
▁collection	-9.66655
▁Berlin	-9.66656
▁directement	-9.66784
▁Lyon	-9.66789
▁peuple	-9.66865
▁noir	-9.66921
▁derrière	-9.66978
▁Y	-9.67004
▁lieux	-9.67134
▁perd	-9.6716
▁choix	-9.67371
▁rendre	-9.67425
▁sélection	-9.67448
▁James	-9.67495
idae	-9.67509
utilisation	-9.67649
▁Allemagne	-9.67705
▁lutte	-9.67711
▁hauteur	-9.67756
Y	-9.67876
▁record	-9.67887
▁pape	-9.68043
istes	-9.68066
▁donner	-9.68133
ball	-9.68204
▁Su	-9.6827
▁édition	-9.68335
▁passer	-9.68347
▁Richard	-9.68353
▁revient	-9.68392
ront	-9.68559
▁remporté	-9.68588
eurs	-9.68612
▁phase	-9.68826
by	-9.68923
▁pied	-9.69178
▁évolue	-9.69183
▁décision	-9.69211
▁supérieure	-9.69269
ise	-9.69338
▁arrive	-9.69457
▁découverte	-9.69508
▁Mer	-9.69514
▁[	-9.69528
▁actuellement	-9.69576
ham	-9.69772
▁bâtiments	-9.69777
▁belge	-9.69798
▁conseiller	-9.69822
▁quant	-9.70156
berg	-9.70211
▁obtenu	-9.70214
▁crée	-9.70266
industrie	-9.70375
▁Alors	-9.70384
▁suivi	-9.70484
▁devait	-9.70597
▁Cor	-9.7061
si	-9.70637
▁Pe	-9.70742
▁classique	-9.70743
▁single	-9.70863
▁navire	-9.70864
▁gouverneur	-9.70894
▁moderne	-9.70921
▁scientifique	-9.70926
ven	-9.70948
▁Ho	-9.71063
ive	-9.71137
étude	-9.71173
io	-9.71201
▁Premier	-9.7126
▁puissance	-9.71281
▁construite	-9.71317
▁parents	-9.71324
▁lettres	-9.71374
▁soldats	-9.71436
min	-9.71444
▁îles	-9.71463
sse	-9.71732
▁Italie	-9.71763
Pierre	-9.71772
▁cœur	-9.71812
▁problèmes	-9.71853
▁retraite	-9.71907
▁Plusieurs	-9.71985
▁inscrit	-9.72075
▁permis	-9.72187
ance	-9.72191
cher	-9.72194
▁social	-9.72202
Or	-9.72209
tor	-9.72241
▁inter	-9.72315
▁1995	-9.72367
▁Georges	-9.72401
sh	-9.72615
▁neuf	-9.72649
▁2013	-9.7268
ji	-9.72696
▁Malgré	-9.72716
▁seront	-9.72808
▁label	-9.72816
▁2013,	-9.72876
com	-9.72891
altitude	-9.72916
▁là	-9.72954
▁Ni	-9.73071
▁ami	-9.73103
▁limite	-9.73317
hi	-9.7339
aï	-9.73491
▁courant	-9.7352
13	-9.7356
▁frontière	-9.73575
▁feu	-9.73584
á	-9.73671
▁techniques	-9.73731
▁mondial	-9.73748
▁tel	-9.73822
mé	-9.7388
ès	-9.73895
ho	-9.73901
▁suivantes	-9.73935
▁Da	-9.73948
▁semaine	-9.74005
▁relation	-9.74024
▁2014,	-9.74027
▁40	-9.74079
ois	-9.74218
▁Je	-9.74264
ers	-9.74339
▁conduit	-9.74471
▁bonne	-9.74519
▁meilleure	-9.74565
▁lance	-9.7457
ano	-9.74606
ns	-9.7466
vo	-9.747
▁Révolution	-9.74756
▁eut	-9.7478
activité	-9.74938
▁devint	-9.74995
▁prison	-9.75084
▁littérature	-9.75141
▁revue	-9.75179
fi	-9.75309
▁règne	-9.75343
▁dernières	-9.75424
▁Sch	-9.75463
▁officiellement	-9.75485
▁remplacé	-9.75779
▁essentiellement	-9.75828
▁studio	-9.75985
▁langues	-9.76
▁ma	-9.76091
▁mieux	-9.76209
▁loin	-9.76232
▁2008,	-9.76586
▁É	-9.76719
▁commun	-9.76762
▁2012,	-9.76885
▁coupe	-9.76922
▁garde	-9.76942
▁signifie	-9.76966
▁court	-9.77109
▁permettent	-9.7711
▁000	-9.77135
▁concours	-9.77141
▁doute	-9.77204
▁Liste	-9.77247
▁2016	-9.77264
▁entreprises	-9.77309
▁participation	-9.77314
▁commandant	-9.77329
▁Pa	-9.77402
lan	-9.77432
▁magazine	-9.77518
▁monuments	-9.77542
▁diamètre	-9.77549
▁déclare	-9.77569
cy	-9.77594
▁sert	-9.77633
▁commencé	-9.77639
▁navires	-9.77814
▁bassin	-9.7782
▁Cap	-9.77823
▁Li	-9.77926
▁Mi	-9.77936
▁/	-9.77991
▁stade	-9.78076
arrondissement	-9.78155
▁activité	-9.78185
ny	-9.78273
▁Chi	-9.78317
▁palais	-9.78324
▁Ja	-9.78432
▁débuts	-9.78472
▁von	-9.78499
▁Cela	-9.78508
▁dés	-9.78528
▁côte	-9.78528
▁trouver	-9.78541
▁utilise	-9.78562
▁déroule	-9.78652
▁veut	-9.78803
▁soviétique	-9.78829
▁Elles	-9.78861
▁Lu	-9.78872
▁Toutefois	-9.78909
▁tient	-9.78921
▁semaines	-9.78928
ence	-9.79066
▁superficie	-9.79078
▁comporte	-9.79097
▁matière	-9.79117
▁état	-9.79169
▁quelque	-9.79216
▁propriété	-9.7922
▁tradition	-9.79231
▁Van	-9.79404
í	-9.79441
▁japonais	-9.79552
▁André	-9.79602
▁2009,	-9.79653
France	-9.79655
▁défaite	-9.79657
▁rejoindre	-9.79772
▁longtemps	-9.79795
▁1994	-9.79862
▁2004	-9.79952
°	-9.80043
▁Ra	-9.80062
fa	-9.80106
▁faveur	-9.80165
▁largement	-9.80177
▁Français	-9.80204
▁Te	-9.80238
mon	-9.80296
▁capacité	-9.8034
▁Ju	-9.80346
je	-9.80443
▁durée	-9.80453
he	-9.80755
▁sommet	-9.80849
▁sources	-9.80982
voir	-9.8113
▁administrative	-9.81195
▁sœur	-9.81353
▁Montréal	-9.81371
▁processus	-9.81383
Assemblée	-9.8141
▁Et	-9.81493
▁rang	-9.81529
▁2007,	-9.81539
▁frères	-9.81595
▁forêt	-9.81622
▁physique	-9.81654
▁Enfin	-9.81765
▁distance	-9.81978
▁intitulé	-9.82216
▁ouvert	-9.82251
▁Bernard	-9.82252
lon	-9.82255
▁mari	-9.82291
▁Ti	-9.82301
ini	-9.82308
▁Ch	-9.82357
▁connaît	-9.82359
▁peinture	-9.82386
▁réserve	-9.82416
énergie	-9.82467
ien	-9.825
▁collaboration	-9.82519
ian	-9.82533
ius	-9.82562
▁formé	-9.82578
▁recherches	-9.82615
one	-9.82651
▁formes	-9.82655
ty	-9.82748
po	-9.82801
▁manque	-9.82839
▁caractère	-9.82853
▁hors	-9.82868
▁26	-9.82884
▁régulièrement	-9.82943
▁Ro	-9.83012
▁chacun	-9.83142
▁royale	-9.83255
▁nouvel	-9.8326
avait	-9.83281
▁eaux	-9.83409
▁entièrement	-9.83431
pi	-9.83535
▁2016,	-9.83563
▁originaire	-9.8361
▁paix	-9.83626
▁Moyen	-9.83662
▁arrêté	-9.83749
▁mandat	-9.83779
▁débute	-9.83844
où	-9.83845
▁2017,	-9.83945
▁contient	-9.84032
▁offre	-9.84067
▁histoire	-9.84108
▁conflit	-9.84128
▁journaliste	-9.84133
▁dollars	-9.84194
▁lettre	-9.84197
étend	-9.84212
▁religieux	-9.84279
▁Guillaume	-9.84361
ang	-9.84378
ski	-9.84535
▁européen	-9.84618
▁réalité	-9.84667
▁couple	-9.847
▁rive	-9.84793
tz	-9.84797
▁Gi	-9.84803
▁plantes	-9.84888
▁Nicolas	-9.84919
▁faisait	-9.84957
ques	-9.84982
car	-9.84995
▁Mal	-9.8507
▁gmina	-9.85185
▁couleurs	-9.85213
▁principales	-9.85213
res	-9.85243
od	-9.85253
▁locale	-9.85272
avec	-9.85321
▁locaux	-9.8537
▁saisons	-9.85373
▁Jo	-9.85391
▁critiques	-9.85402
iens	-9.85469
▁décret	-9.85472
▁appel	-9.85503
▁paroisse	-9.85534
▁via	-9.85612
tes	-9.85736
▁cimetière	-9.85742
ologie	-9.85773
là	-9.85815
▁Ré	-9.85945
▁Certains	-9.86117
▁lycée	-9.8624
▁professionnelle	-9.86326
▁2017	-9.86408
▁textes	-9.86483
op	-9.86484
▁constitué	-9.8649
gé	-9.86538
▁Do	-9.86629
▁fil	-9.8665
▁IV	-9.86672
▁crise	-9.86734
ouverture	-9.86785
exploitation	-9.86793
▁27	-9.86851
▁participé	-9.86914
nant	-9.86926
▁commandement	-9.86985
▁fleuve	-9.86986
▁telles	-9.87066
▁Claude	-9.87119
▁difficile	-9.87165
hiver	-9.87175
In	-9.87233
▁diffusée	-9.87305
économie	-9.87363
▁suivants	-9.87436
▁Puis	-9.87491
▁juste	-9.87493
▁28	-9.87551
▁urbaine	-9.87567
▁auteurs	-9.87604
avant	-9.87609
▁bi	-9.87656
ix	-9.87661
20	-9.87774
▁powiat	-9.87805
▁trouvent	-9.8782
▁p	-9.8785
▁peine	-9.88051
▁autorités	-9.8814
▁problème	-9.88225
caractéristiques	-9.88292
▁comité	-9.88339
▁Ber	-9.88341
let	-9.88348
▁principe	-9.88366
▁Fa	-9.88434
ble	-9.88443
▁gaz	-9.8846
▁Leur	-9.88463
intérêt	-9.88472
▁cinquième	-9.88522
rou	-9.88602
▁personnel	-9.8861
ab	-9.88616
▁National	-9.88629
zi	-9.88702
tion	-9.88756
ng	-9.88785
issue	-9.88843
▁championnats	-9.88858
▁chambre	-9.88882
▁Ru	-9.88942
De	-9.89171
▁désigner	-9.89304
oc	-9.89319
▁seigneur	-9.89374
▁maisons	-9.89436
attaque	-9.89508
▁cathédrale	-9.89649
▁bronze	-9.89791
▁tombe	-9.89824
▁Los	-9.89916
▁responsable	-9.89924
▁sites	-9.9002
▁françaises	-9.90035
▁vont	-9.90074
▁construire	-9.90106
▁parvient	-9.90121
▁hockey	-9.90181
nier	-9.90187
▁Hu	-9.90221
▁Dieu	-9.90302
teur	-9.90341
▁accord	-9.90397
▁Michael	-9.90523
tel	-9.9053
▁caractérisée	-9.90555
▁train	-9.90591
Jean	-9.90662
▁chute	-9.90687
▁?	-9.90718
ière	-9.90771
▁projets	-9.90878
▁risque	-9.90968
▁développé	-9.9101
▁commission	-9.9102
▁cheval	-9.9104
▁école	-9.9116
▁permettre	-9.91181
tant	-9.91213
▁Fédération	-9.91294
▁profit	-9.9133
▁code	-9.9136
zo	-9.91392
information	-9.91465
▁régiment	-9.91599
▁Lorsque	-9.91643
▁maladie	-9.91743
▁Daniel	-9.91757
existence	-9.91914
ran	-9.91916
▁former	-9.91931
▁traitement	-9.9194
▁utilisés	-9.92077
Louis	-9.92078
▁fortement	-9.92155
▁portant	-9.92257
ster	-9.92258
▁église	-9.92265
▁Parlement	-9.92334
▁tente	-9.92448
▁Bu	-9.92466
▁Chambre	-9.92485
▁rien	-9.92488
lieu	-9.92589
▁plein	-9.92589
▁Festival	-9.92592
▁élevé	-9.92627
▁Mor	-9.92718
bu	-9.92769
▁finit	-9.92785
25	-9.92937
▁civile	-9.92963
▁dirige	-9.93077
▁étudie	-9.93172
▁sorte	-9.93373
▁Vienne	-9.93458
Amérique	-9.9352
ienne	-9.93593
▁Haute	-9.93623
▁0	-9.93626
▁véritable	-9.93701
▁orbite	-9.93718
▁van	-9.93723
▁fusion	-9.93725
▁Sous	-9.93758
▁féminin	-9.93832
▁participer	-9.93834
▁endémique	-9.93901
the	-9.94083
ah	-9.94162
▁uniquement	-9.94189
article	-9.94323
mes	-9.9441
end	-9.94425
▁Bra	-9.94544
▁1972	-9.94617
▁épisodes	-9.94639
El	-9.94648
▁auteur	-9.9467
▁He	-9.94744
▁grec	-9.94754
▁An	-9.94852
▁visite	-9.9487
ille	-9.94904
▁Brésil	-9.94986
▁mur	-9.94996
▁soient	-9.95012
espèce	-9.95022
▁artistique	-9.95051
▁écoles	-9.95058
▁passant	-9.95094
vé	-9.95113
ru	-9.95181
▁justice	-9.9522
▁mémoire	-9.95263
▁petites	-9.95286
▁Californie	-9.9531
▁champ	-9.95312
▁score	-9.95357
▁naturel	-9.95362
▁local	-9.95386
▁basé	-9.95393
gan	-9.95435
▁lendemain	-9.95441
▁Ge	-9.95446
ig	-9.95454
▁lumière	-9.95475
▁liberté	-9.95557
vers	-9.95572
euse	-9.95595
▁noms	-9.95619
–	-9.95687
▁vente	-9.95704
▁voiture	-9.9582
ue	-9.95832
▁futur	-9.95948
▁Bon	-9.96033
▁Wa	-9.96036
▁col	-9.96056
▁candidat	-9.96073
▁Ville	-9.96098
▁Marc	-9.9612
▁victoires	-9.96167
▁note	-9.96184
▁Pan	-9.962
▁organisé	-9.96343
▁diocèse	-9.96412
lot	-9.96412
▁Mon	-9.96461
Dame	-9.96469
Re	-9.96477
influence	-9.96502
we	-9.96518
▁Fin	-9.96535
▁tours	-9.96579
ku	-9.96613
▁rugby	-9.96733
▁Pont	-9.96835
▁Bruxelles	-9.96902
▁éditions	-9.97053
▁2002	-9.97056
▁patrimoine	-9.9707
▁occupe	-9.97072
▁appartenant	-9.97132
▁italienne	-9.97147
▁Avant	-9.97158
▁collège	-9.97254
ach	-9.97259
ey	-9.97262
▁lesquels	-9.97348
▁conception	-9.97401
éducation	-9.97436
▁ouvrages	-9.97454
▁dispute	-9.9748
tique	-9.97522
▁Gu	-9.9753
▁propriétaire	-9.97586
▁publiée	-9.97598
▁jeunesse	-9.97657
▁maintenant	-9.97722
▁1990	-9.97726
▁1999	-9.97789
▁séries	-9.97859
▁nécessaire	-9.97881
▁ouvrage	-9.97902
iers	-9.97939
▁juge	-9.97955
▁espagnol	-9.97956
indépendance	-9.97999
▁montagne	-9.98025
▁philosophie	-9.98041
▁meilleurs	-9.98062
▁résultat	-9.98062
▁bureau	-9.98116
▁2018	-9.98123
▁réalisateur	-9.98164
▁disque	-9.98214
▁Trois	-9.98289
ts	-9.98297
AS	-9.9834
Marie	-9.98422
▁Har	-9.98479
accès	-9.98616
▁Ga	-9.98694
▁termes	-9.98916
▁Notre	-9.98926
▁2003	-9.98945
▁bat	-9.99052
▁Peter	-9.99144
▁désigne	-9.99151
▁Tu	-9.99234
▁méthode	-9.99313
architecture	-9.99415
▁reprise	-9.99422
▁pilote	-9.99431
▁devenue	-9.99435
▁familles	-9.99436
▁animaux	-9.99464
▁festival	-9.99488
nie	-9.99496
Ma	-9.99509
▁poids	-9.99545
▁2020,	-9.99747
▁dû	-9.99758
▁pouvant	-9.99794
▁Moscou	-9.99813
▁1998,	-9.99887
▁armes	-9.99894
▁nos	-9.99955
ami	-10.0004
ola	-10.0005
▁Bel	-10.0007
▁communication	-10.0013
▁tri	-10.0013
▁contact	-10.0022
▁reine	-10.0024
▁douze	-10.0027
sch	-10.0027
▁décédé	-10.003
▁publication	-10.0033
▁Angleterre	-10.0036
▁fondation	-10.0039
▁connaissance	-10.0045
han	-10.0054
non	-10.0062
▁filles	-10.0063
▁travailler	-10.0067
▁fonde	-10.0069
▁demeure	-10.007
and	-10.0076
▁puisque	-10.0091
▁Tom	-10.0096
▁glace	-10.0096
pin	-10.0098
architecte	-10.0103
▁objet	-10.0104
▁municipal	-10.0107
▁événements	-10.0109
▁importants	-10.0113
ung	-10.0116
▁correspond	-10.012
nd	-10.0121
▁journée	-10.0125
▁telle	-10.013
▁types	-10.0144
▁Chaque	-10.0155
▁changement	-10.0159
▁fondateur	-10.016
évêque	-10.0165
▁perdu	-10.0175
dit	-10.0183
▁Né	-10.0186
▁monument	-10.0194
▁Don	-10.0202
▁rock	-10.0202
▁naturelle	-10.021
▁poursuit	-10.0216
ker	-10.0217
▁g	-10.0217
▁Maria	-10.022
van	-10.0225
▁pouvait	-10.0231
▁chinois	-10.0234
sk	-10.0235
▁rapide	-10.0235
▁f	-10.0244
infanterie	-10.0244
▁étudiants	-10.0246
▁200	-10.0248
30	-10.0251
▁armées	-10.0251
▁ordre	-10.0253
ff	-10.0265
▁Bi	-10.0268
▁2018,	-10.0268
▁résistance	-10.027
▁parce	-10.0274
▁objets	-10.0275
▁masse	-10.0275
+	-10.0282
▁ci	-10.0285
hôtel	-10.0286
▁appartient	-10.0291
ica	-10.0295
rent	-10.0297
▁contexte	-10.0297
▁Gar	-10.0306
ten	-10.0307
▁laisse	-10.0307
▁thème	-10.0316
▁Albert	-10.0321
▁officiel	-10.0321
▁pression	-10.0326
▁moyens	-10.0329
ó	-10.0329
ita	-10.033
▁parcours	-10.0336
▁vote	-10.0339
▁60	-10.0345
▁propres	-10.0355
▁footballeur	-10.0361
▁développe	-10.037
tan	-10.0377
▁autant	-10.0377
▁enfant	-10.0382
▁législatives	-10.0386
▁29	-10.0393
▁néanmoins	-10.0397
▁présenté	-10.0401
▁1980	-10.0407
▁Royal	-10.0409
▁concept	-10.041
ist	-10.0412
▁relativement	-10.0422
bert	-10.0427
▁Est	-10.0428
▁systèmes	-10.0434
▁fonds	-10.0434
▁médecine	-10.0442
▁polonais	-10.0448
▁composition	-10.0451
▁évêque	-10.0455
▁for	-10.0456
▁compositeur	-10.0466
évolution	-10.0486
▁suisse	-10.0487
▁2001	-10.0495
▁romaine	-10.0498
▁climat	-10.0502
gar	-10.0509
▁Am	-10.0519
▁découvre	-10.0519
▁lancé	-10.052
▁complexe	-10.0522
▁régional	-10.0533
cho	-10.0539
bar	-10.054
▁température	-10.0544
▁Henry	-10.0547
▁basse	-10.0565
▁chanteur	-10.0566
▁ait	-10.0567
▁!	-10.0571
▁canal	-10.0571
installe	-10.0572
▁socialiste	-10.0579
▁1968	-10.058
▁diffusion	-10.0581
▁amis	-10.0584
▁1975	-10.0591
net	-10.06
tro	-10.0602
▁villages	-10.0603
▁lieutenant	-10.0608
opération	-10.0615
▁Angeles	-10.0621
▁Marseille	-10.0622
so	-10.0624
▁Maurice	-10.0625
▁serbe	-10.0629
▁mesures	-10.063
ème	-10.0635
▁chasse	-10.0635
▁affaires	-10.064
sol	-10.0643
▁totale	-10.0645
hr	-10.0647
▁Commission	-10.0647
her	-10.0651
sta	-10.0652
▁regroupe	-10.0656
▁officielle	-10.0662
▁Celui	-10.0665
▁actuel	-10.0671
▁Tout	-10.068
▁dirigé	-10.0682
▁1930	-10.0683
▁élèves	-10.0693
▁choisi	-10.0705
q	-10.0707
▁promotion	-10.0711
▁écrite	-10.0711
▁modèles	-10.0717
▁concerne	-10.0722
▁Jan	-10.0725
▁cap	-10.0739
▁Bre	-10.0742
iques	-10.0745
▁anciennes	-10.075
tin	-10.0754
▁aller	-10.0755
rat	-10.0756
▁Afrique	-10.0757
▁Maison	-10.0759
▁2019	-10.0775
▁ferme	-10.0779
▁trente	-10.078
▁Mé	-10.0784
▁Ku	-10.0784
usage	-10.0785
▁scientifiques	-10.0785
▁périhélie	-10.0785
▁communiste	-10.0799
▁science	-10.0799
▁procès	-10.08
ire	-10.0801
▁unités	-10.0801
▁1970	-10.0815
illon	-10.082
dont	-10.0834
▁voire	-10.0836
▁acteur	-10.0837
▁gros	-10.0839
▁gagne	-10.0839
ling	-10.0839
ay	-10.0844
Au	-10.0846
▁annoncé	-10.086
▁retourne	-10.0872
▁sport	-10.0873
▁Ya	-10.0874
▁monastère	-10.0876
▁marine	-10.0879
▁opérations	-10.0893
▁concert	-10.0894
▁propos	-10.0905
▁inclinaison	-10.0905
ane	-10.091
▁Char	-10.0921
image	-10.0926
▁flotte	-10.0932
▁signé	-10.0936
▁commande	-10.0936
▁carte	-10.0937
▁chœur	-10.0937
▁naît	-10.094
▁Amérique	-10.0943
▁2019,	-10.0952
▁publics	-10.0956
lis	-10.0961
ade	-10.0965
▁1990,	-10.0966
▁réalisée	-10.0969
▁parle	-10.0972
▁bras	-10.0983
agriculture	-10.0985
▁World	-10.0986
▁articles	-10.099
épreuve	-10.0994
▁Quelques	-10.1004
écriture	-10.1008
▁indique	-10.1011
arrière	-10.1013
▁réaliser	-10.1013
ris	-10.1021
har	-10.1026
nel	-10.1037
▁télé	-10.1038
▁attaque	-10.1044
vel	-10.1049
▁1999,	-10.1049
▁1940	-10.1051
▁compose	-10.1054
▁porté	-10.1056
ice	-10.1058
▁voies	-10.1067
▁étape	-10.1068
▁explique	-10.1068
▁mention	-10.1072
Autriche	-10.1081
2,	-10.1081
écliptique	-10.1082
▁dite	-10.1083
▁polonaise	-10.1084
▁révolution	-10.109
▁excentricité	-10.1112
artiste	-10.1115
hu	-10.1116
ttes	-10.1125
ate	-10.1127
▁réalisation	-10.113
▁front	-10.1132
▁accueille	-10.1137
fer	-10.1138
▁to	-10.1148
▁domaines	-10.1157
all	-10.1162
gu	-10.1163
▁proches	-10.1167
▁hommage	-10.1175
ll	-10.1181
absence	-10.1185
24	-10.1188
▁René	-10.1188
▁distribution	-10.119
bel	-10.1191
▁circuit	-10.1196
▁Port	-10.1204
▁entreprise	-10.1208
▁Toulouse	-10.1213
▁Ri	-10.1214
yn	-10.122
US	-10.1223
▁façade	-10.1229
50	-10.1233
▁tôt	-10.1242
▁fête	-10.1248
▁considérée	-10.1251
▁titulaire	-10.1254
tch	-10.1259
▁poète	-10.126
40	-10.1275
▁Mac	-10.1275
▁estimé	-10.1285
▁City	-10.1288
gon	-10.1288
▁je	-10.1302
▁traditionnelle	-10.1304
▁unité	-10.1304
▁utilisant	-10.1304
expression	-10.1307
▁Anne	-10.1308
édifice	-10.1308
▁culte	-10.1309
En	-10.1311
▁Espagne	-10.1314
exception	-10.1316
▁2004,	-10.132
▁littéraire	-10.1324
dia	-10.1332
▁vainqueur	-10.1339
▁actions	-10.1358
▁réforme	-10.1358
▁Roger	-10.1386
environnement	-10.1394
président	-10.1396
▁Peu	-10.1397
uff	-10.1404
ret	-10.1407
▁mouvements	-10.1409
ida	-10.1411
▁Suède	-10.1417
▁issu	-10.1417
ros	-10.1421
▁ouverte	-10.1422
▁arts	-10.1429
ik	-10.1431
▁Championnats	-10.1433
▁Christian	-10.1433
▁mains	-10.1438
19	-10.1438
▁importantes	-10.1443
agglomération	-10.1443
amour	-10.1454
▁considère	-10.146
▁vivant	-10.1461
▁riche	-10.1461
▁auparavant	-10.1465
ché	-10.147
▁décès	-10.148
▁médecin	-10.1482
oli	-10.1486
▁mots	-10.1488
Association	-10.149
▁religion	-10.1496
▁Alexandre	-10.1498
▁Aux	-10.1502
▁portes	-10.1505
▁trans	-10.1505
▁Va	-10.1508
▁croissance	-10.1511
ateur	-10.1517
▁Tra	-10.1534
gue	-10.1548
▁récit	-10.155
euros	-10.1551
▁producteur	-10.1556
▁refuse	-10.156
▁députés	-10.1564
▁Red	-10.1574
▁bout	-10.1575
▁atteindre	-10.1575
court	-10.1576
▁=	-10.1576
▁traduit	-10.1585
▁mont	-10.1587
exposition	-10.1592
études	-10.1594
▁représentation	-10.1604
aires	-10.1604
▁matériel	-10.1608
▁31	-10.1609
▁déclaré	-10.1611
▁obtenir	-10.1613
extérieur	-10.162
▁piste	-10.163
▁volonté	-10.1631
▁final	-10.1633
▁1960	-10.1638
▁Âge	-10.1639
▁majeure	-10.1641
▁Comité	-10.1643
▁traverse	-10.1645
▁Compagnie	-10.1648
▁domicile	-10.1656
rin	-10.1672
ag	-10.1676
▁initialement	-10.1683
ban	-10.1685
▁américains	-10.1686
▁chevaux	-10.1695
▁Can	-10.1708
ables	-10.1711
ani	-10.1717
importance	-10.172
▁électrique	-10.1724
▁représentants	-10.1726
▁chanteuse	-10.1726
occupation	-10.1728
▁certaine	-10.1728
iz	-10.1728
▁1998	-10.173
▁morts	-10.1732
▁h	-10.1734
ju	-10.1738
▁réussit	-10.1739
ong	-10.174
▁tué	-10.1742
▁consiste	-10.1746
▁Bordeaux	-10.1748
▁Bal	-10.1754
unité	-10.176
▁commercial	-10.177
▁vivre	-10.1774
era	-10.1776
▁puisqu	-10.1781
▁Léon	-10.1782
ima	-10.1788
▁informations	-10.1789
ub	-10.1791
▁partage	-10.1795
▁restauration	-10.1798
▁vite	-10.1799
▁conserve	-10.1802
▁musicale	-10.1802
▁mène	-10.1803
▁1945	-10.1805
▁Marcel	-10.1813
▁anglaise	-10.1818
▁Lo	-10.1819
▁Loire	-10.1821
▁produire	-10.1822
cé	-10.1822
▁entraîneur	-10.1826
▁envoyé	-10.1826
ici	-10.1826
can	-10.1832
Bretagne	-10.1835
▁quitter	-10.1837
▁besoin	-10.1844
▁développer	-10.1846
emploi	-10.1847
▁marche	-10.1847
vent	-10.1853
▁Juifs	-10.1856
▁étude	-10.1857
▁respectivement	-10.186
▁1973	-10.1864
▁branche	-10.1864
▁2010.	-10.1867
▁actuelle	-10.1867
din	-10.1869
accord	-10.1874
▁intègre	-10.1884
▁Del	-10.1892
▁épisode	-10.1899
quet	-10.1906
▁croix	-10.1917
▁raisons	-10.1917
▁arrière	-10.1922
delà	-10.1924
▁reconnu	-10.1936
▁Bretagne	-10.1936
▁jardin	-10.1943
▁effectue	-10.1943
▁Cu	-10.1946
erie	-10.1957
▁Marine	-10.1966
▁80	-10.1967
lia	-10.1977
▁complète	-10.199
isse	-10.1991
▁bibliothèque	-10.1992
▁Mexique	-10.1993
▁Tous	-10.201
▁micro	-10.2018
1,	-10.202
opposition	-10.202
▁XV	-10.2021
▁ressources	-10.203
▁Quand	-10.2032
▁Frédéric	-10.2035
▁ordres	-10.2043
ssant	-10.2045
▁démocratique	-10.2046
▁publiés	-10.2066
▁gens	-10.2067
▁Fort	-10.2069
ella	-10.2071
ap	-10.2073
Australie	-10.2082
▁Mu	-10.2092
▁combats	-10.2095
▁murs	-10.2105
engage	-10.2107
▁locales	-10.2113
ren	-10.212
▁Nouveau	-10.2122
analyse	-10.2122
▁Her	-10.2123
▁plans	-10.2124
élève	-10.2134
▁dynastie	-10.2139
▁populations	-10.2141
père	-10.2144
▁reconnaissance	-10.2147
ob	-10.215
▁temple	-10.2152
▁écrivain	-10.2153
▁établi	-10.2153
acteur	-10.2165
▁Pu	-10.2169
▁spécialiste	-10.2171
▁parler	-10.218
wi	-10.2182
▁rencontres	-10.2185
▁caractéristique	-10.2188
▁présidence	-10.2189
▁Art	-10.219
▁Fe	-10.2192
»	-10.22
▁revanche	-10.2205
▁Records	-10.2208
21	-10.221
▁actif	-10.2212
▁économiques	-10.2216
▁Sal	-10.2217
▁télévisée	-10.2218
▁Fi	-10.2221
off	-10.2223
▁rares	-10.2225
▁couronne	-10.223
án	-10.2233
▁romain	-10.2234
▁2002,	-10.2237
hôpital	-10.2243
â	-10.2248
▁Victor	-10.2248
ari	-10.2252
▁Men	-10.226
▁West	-10.2262
▁Vers	-10.2263
ali	-10.2264
▁1980,	-10.2264
▁Washington	-10.2267
▁victimes	-10.2274
▁Pen	-10.2284
iser	-10.2286
▁territoires	-10.2286
out	-10.2288
▁différence	-10.2288
▁documents	-10.229
▁vaste	-10.2293
▁500	-10.2299
▁Musée	-10.2313
▁printemps	-10.2315
▁nomme	-10.2319
▁diplôme	-10.2322
▁servi	-10.2329
▁questions	-10.2333
isé	-10.2335
▁Er	-10.2346
▁vision	-10.2347
pro	-10.2348
Q	-10.2368
▁nef	-10.237
▁marqué	-10.2371
épisode	-10.2376
▁albums	-10.2377
▁universitaire	-10.2377
▁Ve	-10.2381
▁super	-10.2383
mat	-10.2383
esprit	-10.2383
▁Sam	-10.2384
▁travaillé	-10.2386
▁chant	-10.2387
▁britanniques	-10.239
▁trains	-10.239
▁organisée	-10.2396
▁piano	-10.2398
▁Mou	-10.2403
▁Super	-10.2403
▁originale	-10.2406
▁sociétés	-10.2408
▁actrice	-10.2413
▁basée	-10.2415
An	-10.2417
▁ciel	-10.242
22	-10.2421
▁affirme	-10.2434
Paul	-10.2437
▁baron	-10.244
▁Bor	-10.2443
▁disponible	-10.2451
▁simplement	-10.2454
▁japonaise	-10.2455
26	-10.2456
aéroport	-10.246
▁placé	-10.2461
▁véhicules	-10.2465
tour	-10.2466
▁forment	-10.247
appel	-10.247
kh	-10.2477
▁Milan	-10.2481
▁notre	-10.2482
gal	-10.249
▁Ki	-10.2493
▁possibilité	-10.2497
▁présents	-10.2497
▁progressivement	-10.2498
š	-10.25
▁Simon	-10.2502
▁yeux	-10.2502
lant	-10.2507
affaire	-10.2507
▁biens	-10.251
▁soir	-10.2511
27	-10.2518
▁olympique	-10.2527
ä	-10.2528
▁espagnole	-10.253
étranger	-10.2535
0,	-10.2538
ain	-10.2542
▁change	-10.2543
▁promu	-10.2558
▁Portugal	-10.2558
▁Antoine	-10.2564
▁massif	-10.2566
▁néo	-10.2567
▁Guy	-10.257
om	-10.2571
▁plateau	-10.2577
▁décidé	-10.258
affaires	-10.2585
▁Park	-10.2586
6,	-10.2588
▁connaître	-10.2593
▁influence	-10.2593
▁conçu	-10.2595
▁prennent	-10.2596
▁lois	-10.2598
▁impériale	-10.26
▁ouvre	-10.2604
23	-10.2606
▁règles	-10.2608
▁médias	-10.2611
années	-10.262
▁résidence	-10.2626
ell	-10.2626
▁tiers	-10.263
eaux	-10.2634
▁Fer	-10.2635
▁page	-10.2636
▁feuilles	-10.264
bourg	-10.2642
▁Com	-10.2646
▁Ke	-10.2647
ies	-10.2655
▁effets	-10.2656
▁1970,	-10.2657
établissement	-10.2659
▁baie	-10.2662
▁Sé	-10.2668
▁Radio	-10.2669
▁cabinet	-10.2675
▁1997	-10.2676
▁élus	-10.2685
▁associé	-10.2697
▁volume	-10.2698
arrêt	-10.2707
▁apprend	-10.2709
ges	-10.2709
▁Bas	-10.271
▁majeur	-10.2712
▁noire	-10.2713
▁Grèce	-10.2714
▁génération	-10.2714
▁Santa	-10.2715
tier	-10.2715
ouvrage	-10.272
▁humaine	-10.2731
cu	-10.2731
▁José	-10.2735
▁fabrication	-10.2744
▁vin	-10.2749
▁dépend	-10.2759
onne	-10.2759
vie	-10.2762
dis	-10.2764
▁bar	-10.2765
▁1996	-10.2766
▁Mark	-10.2769
ford	-10.277
▁contraire	-10.2777
▁régionale	-10.2777
igne	-10.2778
▁Corée	-10.2786
bre	-10.2792
▁retrouver	-10.2794
▁Bri	-10.2797
▁45	-10.2801
rac	-10.2803
▁Dar	-10.2808
▁places	-10.281
▁discours	-10.281
usine	-10.2811
Armée	-10.2811
▁dessin	-10.2813
▁sixième	-10.2818
▁langage	-10.2819
illa	-10.2826
▁définitivement	-10.283
▁religieuse	-10.2831
▁consacré	-10.2833
ney	-10.2835
▁absolue	-10.2837
▁cycliste	-10.2841
▁Ou	-10.2842
▁repris	-10.2848
▁Beau	-10.2856
ines	-10.286
line	-10.2861
sson	-10.2863
Sa	-10.2864
▁1992	-10.2866
▁My	-10.2866
▁conférence	-10.2883
▁Division	-10.2889
▁Congrès	-10.2889
▁ici	-10.2891
▁culturel	-10.2895
tif	-10.2898
del	-10.2906
▁Ker	-10.2906
▁royal	-10.2908
▁présentant	-10.2915
▁précédente	-10.2916
35	-10.2918
▁servir	-10.292
▁bleu	-10.2921
cer	-10.2925
▁secondes	-10.2926
▁Chicago	-10.2927
cal	-10.2938
ste	-10.2938
▁organise	-10.2938
ec	-10.294
▁sociales	-10.2942
▁fédéral	-10.2946
Mo	-10.2949
▁Vo	-10.295
▁candidats	-10.2951
▁Genève	-10.2951
▁Han	-10.2956
▁Col	-10.2958
▁concerts	-10.2961
ram	-10.2964
▁lesquelles	-10.2965
écrivain	-10.2966
ide	-10.2968
▁tribunal	-10.2976
▁spectacle	-10.298
Co	-10.2981
ud	-10.2981
▁organisation	-10.2982
▁blanche	-10.2982
▁tenu	-10.2985
▁NGC	-10.2988
▁vieux	-10.2992
▁présidentielle	-10.2993
▁sièges	-10.2996
▁prévu	-10.3
ara	-10.3002
▁correspondant	-10.3003
▁privé	-10.3012
▁réaction	-10.3014
▁licence	-10.3016
▁missions	-10.3017
▁Jules	-10.3021
▁siècles	-10.3024
ayant	-10.3026
▁Christ	-10.3028
igny	-10.3033
kin	-10.3037
▁occasion	-10.3039
qué	-10.3042
▁versions	-10.3044
▁battu	-10.3045
▁occidentale	-10.3049
pour	-10.305
tis	-10.3052
artillerie	-10.3057
ph	-10.3062
▁coût	-10.3063
port	-10.3067
▁succède	-10.3067
▁pourtant	-10.3069
Orient	-10.307
ations	-10.307
▁All	-10.3073
animation	-10.3079
▁Petit	-10.3094
▁difficultés	-10.3099
▁1964	-10.3099
▁constituée	-10.31
▁féminine	-10.31
▁ha	-10.3101
▁personnalités	-10.3109
▁per	-10.3112
▁Tri	-10.3113
▁2003,	-10.3115
ras	-10.3115
28	-10.3116
ô	-10.312
▁pêche	-10.3121
▁tennis	-10.3122
▁distingue	-10.3127
▁immédiatement	-10.3129
▁abrite	-10.313
▁cérémonie	-10.313
▁pointe	-10.3134
▁chevalier	-10.3134
▁dirigée	-10.3141
▁bourg	-10.3148
▁sociaux	-10.3149
▁consommation	-10.315
▁2001,	-10.3155
▁Sou	-10.3161
▁agricole	-10.3162
Mar	-10.3162
▁statue	-10.3163
▁basket	-10.3165
▁Cal	-10.3167
▁héros	-10.3168
▁Mel	-10.3169
▁ferroviaire	-10.3172
aud	-10.3173
▁parallèle	-10.3174
▁cycle	-10.3179
▁romans	-10.3185
▁constitution	-10.3187
ens	-10.3189
▁armée	-10.3198
ada	-10.3199
▁morte	-10.32
arc	-10.3201
▁Ger	-10.3211
▁aide	-10.3213
▁datant	-10.3221
lie	-10.3225
▁1,	-10.323
▁estime	-10.3231
▁officier	-10.3233
▁Air	-10.3233
▁Communauté	-10.3234
▁Bé	-10.3242
▁Ad	-10.3246
▁sub	-10.3247
É	-10.3248
▁Sta	-10.3249
▁arabe	-10.3252
zer	-10.3254
▁inspiré	-10.3254
▁seuls	-10.3257
▁Sol	-10.3257
▁Strasbourg	-10.326
automne	-10.3261
è	-10.3266
▁Seine	-10.327
ose	-10.3272
▁Land	-10.3275
▁tir	-10.3284
ón	-10.3289
▁Jusqu	-10.3292
▁étrangères	-10.3296
▁b	-10.3297
▁lien	-10.3297
▁allemands	-10.3301
▁dire	-10.3304
▁performance	-10.3304
▁vert	-10.3308
▁disparu	-10.3308
60	-10.3314
▁protéger	-10.3314
yl	-10.3314
▁tourne	-10.3325
▁autonome	-10.3327
▁raconte	-10.333
▁Nations	-10.3338
▁thèse	-10.3339
▁pi	-10.3343
▁chemins	-10.3345
▁2020	-10.3357
▁cardinal	-10.3367
▁trafic	-10.337
▁comp	-10.3375
▁programmes	-10.3377
ata	-10.3383
▁Rio	-10.3388
▁prisonniers	-10.3388
▁adjoint	-10.339
sen	-10.3392
▁sujets	-10.3397
fe	-10.3406
▁issus	-10.3406
▁jaune	-10.3411
▁niveaux	-10.3417
pha	-10.3423
▁Ci	-10.3425
▁Roi	-10.3426
▁donnant	-10.3432
▁phénomène	-10.3432
▁post	-10.3439
▁For	-10.344
way	-10.3449
field	-10.3451
▁association	-10.3455
▁vrai	-10.3457
▁mono	-10.3462
▁scènes	-10.3462
▁Disney	-10.3464
AC	-10.3464
pé	-10.3471
▁Za	-10.3474
▁sang	-10.3475
▁poly	-10.3476
▁Vol	-10.3483
ants	-10.3485
▁Madrid	-10.3487
▁allant	-10.3488
▁circulation	-10.3489
▁Ban	-10.3489
étant	-10.3494
▁Var	-10.3499
▁belle	-10.3502
▁révolutionnaire	-10.3505
▁1962	-10.351
ura	-10.3514
▁action	-10.3515
ev	-10.3516
▁ca	-10.3518
▁Rou	-10.3521
▁cent	-10.3531
▁prêtre	-10.354
▁vous	-10.3541
▁masculin	-10.3547
▁rendu	-10.355
Baptiste	-10.3551
▁Allemands	-10.3551
▁voitures	-10.3551
▁menace	-10.3554
▁réseaux	-10.3555
▁appelés	-10.3556
▁Tor	-10.3558
▁révèle	-10.3562
▁privée	-10.3562
▁Ali	-10.3562
▁70	-10.3564
enregistrement	-10.3579
ō	-10.3601
▁Celle	-10.3605
dan	-10.3609
▁direct	-10.3609
▁suivre	-10.361
▁acteurs	-10.361
▁assure	-10.3614
▁conservé	-10.3618
▁désigné	-10.3618
bro	-10.3619
▁précédent	-10.362
▁Ser	-10.3621
ions	-10.3623
▁forêts	-10.3623
▁lecture	-10.3624
▁1942	-10.3625
▁utilisées	-10.3626
▁réponse	-10.3635
▁portent	-10.3635
▁libération	-10.3636
ets	-10.3638
▁trône	-10.3638
▁chacune	-10.3641
▁valeurs	-10.3641
Con	-10.3645
▁Néanmoins	-10.3648
▁destiné	-10.3651
▁We	-10.3652
▁1966	-10.3661
▁destruction	-10.3662
étaient	-10.3665
▁enseigne	-10.3666
tt	-10.3668
▁détruit	-10.3674
▁publiques	-10.368
▁champions	-10.3682
▁contenu	-10.3684
▁beaux	-10.3685
▁définition	-10.3686
▁conduite	-10.369
▁appelle	-10.3695
▁scrutin	-10.3698
▁Fu	-10.3701
▁utiliser	-10.3701
ser	-10.3705
▁précise	-10.3709
alité	-10.3712
▁lancer	-10.3713
François	-10.3714
▁professionnels	-10.3715
▁1938	-10.3718
▁dehors	-10.3725
abbé	-10.3727
mel	-10.373
▁franco	-10.3732
▁complet	-10.3732
▁faite	-10.3732
▁prit	-10.3741
▁conséquence	-10.3741
▁Hongrie	-10.3745
▁représenté	-10.3751
▁totalement	-10.3752
ification	-10.3755
90	-10.3757
▁perte	-10.3757
▁liaison	-10.3759
▁onze	-10.3759
▁courte	-10.3759
tation	-10.3763
▁diffusé	-10.3764
▁aura	-10.377
▁chose	-10.3773
▁Tar	-10.3775
▁condition	-10.3776
▁canadien	-10.3776
enfant	-10.3779
▁portée	-10.3787
met	-10.3788
▁docteur	-10.379
▁venir	-10.3795
og	-10.3795
▁quart	-10.3798
▁35	-10.3798
▁profondeur	-10.3802
tal	-10.3802
▁rurale	-10.3803
ans	-10.3804
▁Dan	-10.3812
▁prises	-10.3815
▁beau	-10.3816
▁tentative	-10.3818
▁active	-10.3819
▁transfert	-10.3821
ène	-10.3827
▁débit	-10.3827
▁restent	-10.383
▁Maroc	-10.383
enne	-10.3835
▁Laurent	-10.3837
▁installé	-10.3842
▁enregistré	-10.3846
37	-10.3847
▁envers	-10.3848
▁préfecture	-10.3853
ales	-10.3854
▁format	-10.3858
bon	-10.386
gou	-10.3871
▁somme	-10.3875
observatoire	-10.3877
▁original	-10.3881
▁transports	-10.3882
▁idées	-10.3886
▁respect	-10.3887
dou	-10.3892
▁paru	-10.3893
▁mathématiques	-10.3894
▁mon	-10.3895
Asie	-10.3899
▁me	-10.3901
▁dessinée	-10.3905
▁Carl	-10.3909
▁routes	-10.3915
▁Black	-10.3922
▁1939	-10.3922
▁1954	-10.3924
ides	-10.3932
autorité	-10.3935
ves	-10.3936
▁connus	-10.3937
'«	-10.3937
auto	-10.3944
▁musical	-10.3954
lier	-10.3957
éré	-10.3958
▁sauf	-10.3958
▁matin	-10.3962
▁pensée	-10.3967
▁courses	-10.3968
▁Ol	-10.397
▁interdit	-10.3973
▁Jeanne	-10.3978
▁Napoléon	-10.3978
00	-10.3979
▁éviter	-10.3979
▁1941	-10.398
én	-10.3983
▁quartiers	-10.3989
▁desservie	-10.3993
su	-10.3999
▁européens	-10.3999
océan	-10.4007
▁porter	-10.4008
▁cartes	-10.4014
nay	-10.4017
ole	-10.4018
▁mélange	-10.4025
▁Pat	-10.4027
▁auquel	-10.4027
▁contenant	-10.403
Irlande	-10.4032
▁Is	-10.4034
▁Luc	-10.4041
▁partis	-10.4041
▁2015.	-10.4046
▁colonel	-10.4048
▁Monte	-10.4051
▁automobile	-10.4052
▁Hall	-10.4057
▁Mc	-10.4059
▁étrangers	-10.4059
oni	-10.4065
▁rester	-10.4067
qua	-10.4067
▁établissements	-10.4068
▁Francisco	-10.4073
Inde	-10.4076
armes	-10.4079
▁1960,	-10.408
▁Nantes	-10.4086
▁secondaire	-10.4089
objectif	-10.4093
▁victime	-10.4098
▁1949	-10.4099
▁1950	-10.4104
45	-10.4105
▁écrits	-10.4107
▁Monde	-10.4111
ib	-10.4112
▁Smith	-10.4122
▁espace	-10.4124
▁fleurs	-10.4129
▁War	-10.4131
▁Frank	-10.4136
▁vendu	-10.4137
▁Jack	-10.4141
▁recueil	-10.4145
ori	-10.4146
▁condamné	-10.4149
▁chefs	-10.415
▁av	-10.4151
70	-10.4151
▁mines	-10.4153
▁1993	-10.4156
tar	-10.4156
▁officiers	-10.416
▁réussi	-10.416
▁couverture	-10.4164
▁humains	-10.4167
heure	-10.4168
dans	-10.4171
Orléans	-10.4172
▁néerlandais	-10.4175
80	-10.4176
Loire	-10.4182
▁Lille	-10.4182
▁entier	-10.4184
▁League	-10.4185
ö	-10.4187
comme	-10.4193
▁Long	-10.4193
▁phare	-10.4197
application	-10.4197
▁Gra	-10.4199
▁étudié	-10.4205
nis	-10.421
29	-10.4212
▁Barcelone	-10.4212
▁Hol	-10.4213
▁Bourgogne	-10.4215
▁comportement	-10.4216
▁College	-10.4218
3,	-10.4233
▁donnée	-10.4233
▁mêmes	-10.4233
siège	-10.4234
Ordre	-10.4237
pt	-10.4247
▁Côte	-10.4247
arts	-10.4248
cus	-10.4249
dessous	-10.4252
ières	-10.4253
▁administratif	-10.4258
▁communautés	-10.4258
▁musiciens	-10.427
33	-10.4279
▁Min	-10.4283
▁civil	-10.4289
▁mettant	-10.429
▁pleine	-10.429
ich	-10.4297
▁altitude	-10.4304
actuelle	-10.4304
pp	-10.4306
tri	-10.4312
▁multi	-10.4315
▁directe	-10.4317
Algérie	-10.4319
bé	-10.4322
ky	-10.4322
▁quantité	-10.4325
▁sait	-10.4325
▁Sénat	-10.4327
▁Aujourd	-10.4337
▁trouvé	-10.4341
▁numérique	-10.4341
▁quinze	-10.4345
shi	-10.4347
▁semi	-10.4353
▁religieuses	-10.4359
▁grade	-10.436
▁90	-10.4363
▁échange	-10.4366
▁stations	-10.4372
▁répartition	-10.4373
▁soutenu	-10.4378
▁internationales	-10.4378
▁poésie	-10.4381
▁Music	-10.4386
▁Stade	-10.4388
▁Australie	-10.4392
▁comédie	-10.4395
▁épreuves	-10.4404
▁cor	-10.4407
deux	-10.4414
▁plante	-10.4415
effet	-10.4418
▁régulière	-10.4424
▁International	-10.4428
▁spécifique	-10.4428
▁présenter	-10.443
orchestre	-10.4431
▁terminé	-10.4432
▁retrait	-10.4432
▁montée	-10.4432
▁accepte	-10.4434
▁vent	-10.4434
▁notion	-10.4442
ill	-10.4444
▁Groupe	-10.4447
▁remplacer	-10.445
▁Juan	-10.4454
ule	-10.4458
ct	-10.4459
Art	-10.4464
illy	-10.4467
▁métro	-10.4467
▁objectif	-10.4467
hn	-10.4469
ér	-10.4469
▁présentent	-10.4477
▁fonctionnement	-10.4482
▁occupé	-10.4484
▁Théâtre	-10.4489
ries	-10.4491
▁constituent	-10.4492
▁juive	-10.4494
▁document	-10.4494
▁remonte	-10.4496
lay	-10.4498
▁montagnes	-10.4499
▁Far	-10.45
vier	-10.4501
▁solution	-10.4506
97	-10.4507
bas	-10.4509
orbite	-10.4509
▁1991	-10.4511
▁légèrement	-10.4514
▁complètement	-10.4516
hé	-10.4517
▁définie	-10.452
anglais	-10.4521
wo	-10.4526
▁2008.	-10.4527
ture	-10.453
▁salles	-10.4536
gy	-10.4541
▁budget	-10.4544
imp	-10.4548
▁laisser	-10.4557
▁scénariste	-10.456
▁relie	-10.4563
▁trouvait	-10.4563
ration	-10.4565
ium	-10.4568
▁solo	-10.4573
▁accès	-10.458
▁Bay	-10.4582
▁saut	-10.4583
yo	-10.4585
▁similaire	-10.4591
▁1988	-10.4596
élevage	-10.4596
▁2012.	-10.4599
▁réunion	-10.46
Ha	-10.4609
▁bus	-10.4612
▁indépendant	-10.4612
▁As	-10.4612
▁formule	-10.4614
▁Pré	-10.4615
▁dirigeants	-10.4626
▁race	-10.4633
▁liés	-10.464
▁disposition	-10.464
▁inférieur	-10.464
▁doctorat	-10.4641
ray	-10.4646
▁interprète	-10.465
ena	-10.465
▁débat	-10.4654
▁institutions	-10.4656
▁intitulée	-10.4659
▁laissé	-10.4664
▁2014.	-10.4669
▁introduit	-10.4671
▁Ram	-10.4672
ip	-10.4672
▁multiples	-10.4675
▁Vierge	-10.4694
▁accompagné	-10.4694
▁2011.	-10.4703
▁soutient	-10.4706
temps	-10.4708
▁nations	-10.4709
▁Gui	-10.4713
gg	-10.4713
▁Alain	-10.4713
ê	-10.4717
▁1937	-10.472
fils	-10.4724
▁barrage	-10.4727
▁Nu	-10.4733
▁apparition	-10.4734
▁School	-10.4736
▁Outre	-10.4738
ther	-10.4747
75	-10.4748
▁voyageurs	-10.4749
▁réduit	-10.4751
Histoire	-10.4751
▁primaire	-10.4756
ps	-10.4761
▁Mary	-10.4762
▁Kar	-10.4762
▁quotidien	-10.4765
▁Colombie	-10.4765
bou	-10.4765
▁traduction	-10.477
▁vis	-10.477
▁guitare	-10.4774
▁Constitution	-10.4779
sion	-10.4783
ero	-10.4785
chant	-10.4785
gel	-10.4787
▁tendance	-10.4792
▁Certaines	-10.4792
vert	-10.4793
▁visant	-10.4796
▁Dor	-10.4797
▁abandonné	-10.4799
▁prenant	-10.4806
▁classes	-10.4814
▁acquis	-10.4816
▁nucléaire	-10.4817
▁Pin	-10.4826
▁ski	-10.4829
▁bio	-10.4831
expérience	-10.4832
▁comprenant	-10.484
▁Serbie	-10.4843
▁32	-10.4847
▁Bur	-10.4851
▁Dom	-10.4856
▁dos	-10.4859
low	-10.4869
dor	-10.4874
▁princesse	-10.4874
▁associations	-10.4875
▁pouvoirs	-10.4877
▁planète	-10.4878
oux	-10.4878
▁interne	-10.4889
▁république	-10.4892
▁généraux	-10.4894
▁gamme	-10.4897
▁moteurs	-10.4906
▁élevée	-10.4907
amiral	-10.4907
▁européennes	-10.4909
onde	-10.4915
▁Patrick	-10.4924
▁coopération	-10.4929
▁souhaite	-10.4932
Vi	-10.4936
▁méthodes	-10.4936
▁exemplaires	-10.4941
▁nationaux	-10.4942
▁photo	-10.4942
▁VI	-10.4943
▁Ham	-10.4943
▁deviennent	-10.4946
▁provenant	-10.4946
▁mille	-10.4947
Martin	-10.4947
▁Francis	-10.4952
▁représentent	-10.4954
naire	-10.4954
bat	-10.4961
▁facilement	-10.4961
▁2006.	-10.497
38	-10.4971
▁Bru	-10.4971
rd	-10.4971
duc	-10.4971
▁ligue	-10.4972
obtenir	-10.4973
▁rôles	-10.4977
▁test	-10.4979
▁sortir	-10.498
▁Lou	-10.4981
▁menée	-10.4983
via	-10.4985
Am	-10.4986
▁cellules	-10.4987
▁choisit	-10.4996
tive	-10.5001
Un	-10.5002
▁Président	-10.5008
our	-10.5009
▁disparition	-10.5009
▁Ros	-10.5009
▁sélectionné	-10.5011
▁1989	-10.5014
ef	-10.5021
▁tournage	-10.5022
▁légende	-10.5023
▁Jésus	-10.5027
č	-10.5029
ira	-10.5029
▁preuve	-10.5031
▁proposition	-10.5032
▁préparation	-10.5033
nu	-10.5036
▁vécu	-10.5037
univers	-10.5042
▁sportive	-10.5043
▁blessé	-10.5046
▁Gen	-10.5046
▁canadienne	-10.5048
▁cherche	-10.505
invasion	-10.5054
▁Turquie	-10.5058
▁chapitre	-10.5061
Ro	-10.5062
extrémité	-10.5062
▁brigade	-10.5062
olo	-10.5064
▁canon	-10.5065
Écosse	-10.5066
▁secondaires	-10.5067
avance	-10.5068
▁compétitions	-10.5071
▁nationales	-10.5072
▁chiffre	-10.5074
▁capable	-10.508
▁performances	-10.5084
aménagement	-10.5084
▁engagé	-10.5085
▁structures	-10.5086
▁quasi	-10.5087
ok	-10.5087
isant	-10.509
▁gardien	-10.5096
▁Ab	-10.5098
▁artiste	-10.5098
▁clocher	-10.5102
▁marquée	-10.5103
▁Savoie	-10.5106
▁lancement	-10.5107
▁aîné	-10.511
▁pose	-10.511
▁agricoles	-10.5112
▁Raymond	-10.5114
▁liée	-10.5116
▁propriétés	-10.5116
Il	-10.5119
34	-10.5129
▁gagner	-10.513
▁2000.	-10.5131
▁révolte	-10.5133
nia	-10.5133
▁classée	-10.5141
▁prêt	-10.5143
▁pratiques	-10.5144
▁revenir	-10.5144
▁deviendra	-10.5146
▁banque	-10.5155
▁visible	-10.5156
▁galerie	-10.5158
▁million	-10.5159
▁franchise	-10.5161
▁reprendre	-10.5162
▁CD	-10.5164
▁davantage	-10.5165
▁images	-10.5167
31	-10.5175
▁Pas	-10.5177
2.	-10.5178
▁400	-10.5183
zy	-10.5185
▁Basse	-10.5185
▁successeur	-10.519
af	-10.5192
▁Haut	-10.5193
▁magnitude	-10.5194
actuel	-10.5195
ary	-10.5196
▁standard	-10.5197
▁modernes	-10.5198
▁Cam	-10.52
roy	-10.5202
▁j	-10.5205
ow	-10.5209
▁besoins	-10.521
gie	-10.5212
▁succession	-10.5216
▁tu	-10.5219
▁culturelle	-10.5226
▁conquête	-10.5227
▁compter	-10.5229
▁couvre	-10.524
ments	-10.5242
▁conseillers	-10.5242
▁2007.	-10.5245
▁expérience	-10.5247
▁Catherine	-10.5249
▁2013.	-10.525
forme	-10.5257
=	-10.5259
▁Star	-10.5264
▁limitée	-10.5264
élite	-10.5265
▁pense	-10.5273
▁liées	-10.5276
4,	-10.5278
32	-10.5279
▁Bill	-10.5279
▁danger	-10.528
impose	-10.5281
tiques	-10.5285
▁désert	-10.5287
ages	-10.5288
elli	-10.5289
▁Max	-10.529
Po	-10.5291
▁Normandie	-10.5297
gui	-10.5299
▁vaisseau	-10.5301
94	-10.5304
49	-10.5304
▁Château	-10.5305
major	-10.5313
▁spatial	-10.5313
▁dramatique	-10.5317
▁relève	-10.5319
ft	-10.5319
▁milliers	-10.5319
Zélande	-10.532
▁déc	-10.5322
▁réduire	-10.5326
▁journaux	-10.5329
antes	-10.5329
▁consacre	-10.5331
▁calcul	-10.5335
▁auto	-10.5335
▁couvent	-10.5337
▁scénario	-10.5338
▁Karl	-10.5343
▁1935	-10.5345
éro	-10.5346
rot	-10.5347
▁essais	-10.5348
▁grecque	-10.5352
las	-10.5354
▁2009.	-10.5357
plan	-10.5358
▁seigneurie	-10.5363
▁maritime	-10.5364
▁Cro	-10.5365
▁humain	-10.5367
▁lié	-10.5368
nage	-10.5372
mis	-10.5374
cre	-10.538
mère	-10.5382
▁récemment	-10.5385
▁départemental	-10.5385
Ca	-10.5386
angle	-10.5388
▁1928	-10.5392
▁élément	-10.5398
Ancien	-10.5404
fu	-10.5405
ète	-10.541
▁entière	-10.5414
▁orientale	-10.5417
▁Q	-10.542
▁Th	-10.5421
▁Hor	-10.5421
▁documentaire	-10.5423
ches	-10.5426
▁1986	-10.5426
Li	-10.5427
▁Cho	-10.543
lic	-10.5433
▁chargée	-10.5438
▁Grâce	-10.5438
vant	-10.5446
▁Pal	-10.5447
▁traversée	-10.5452
▁noter	-10.5455
bour	-10.5465
initiative	-10.5465
▁observations	-10.5468
quin	-10.5469
▁symbole	-10.5474
▁auraient	-10.5477
▁1900	-10.5478
▁aérienne	-10.5481
▁technologie	-10.5482
▁édité	-10.5483
▁émissions	-10.5491
▁calendrier	-10.5496
▁Mad	-10.5508
xi	-10.5508
utiliser	-10.5508
▁rédaction	-10.5522
ello	-10.5524
rant	-10.5525
▁donnent	-10.5531
inter	-10.5531
▁revenu	-10.5533
▁montré	-10.5533
iel	-10.5535
▁peintures	-10.5536
▁matériaux	-10.5544
hl	-10.5547
▁montant	-10.5551
oud	-10.5553
▁Gor	-10.5554
lais	-10.5555
▁congrès	-10.5557
▁maintenir	-10.5557
Val	-10.556
▁Plan	-10.5564
ü	-10.5566
uk	-10.5568
▁Gabriel	-10.5569
▁tableaux	-10.557
▁ventes	-10.5577
▁élève	-10.5578
▁subit	-10.5578
▁situés	-10.5579
my	-10.5586
▁Croix	-10.5588
ces	-10.5589
av	-10.5596
gor	-10.5597
▁mé	-10.5598
▁rues	-10.56
▁maximum	-10.56
uel	-10.5602
emplacement	-10.5604
▁Rock	-10.5604
▁300	-10.5605
▁Ag	-10.5605
▁Norvège	-10.5607
▁cavalerie	-10.5612
historien	-10.5618
mus	-10.5618
ï	-10.562
kan	-10.5626
▁dédiée	-10.5629
99	-10.5637
ES	-10.5644
tent	-10.5646
▁internationaux	-10.5647
électricité	-10.565
▁jazz	-10.5664
▁remplacement	-10.5672
▁canons	-10.5672
▁1957	-10.5673
.&	-10.5674
▁hameau	-10.5674
!	-10.5679
▁Luxembourg	-10.5684
apparition	-10.5684
▁changements	-10.5685
bin	-10.5686
▁Mans	-10.5687
▁Hi	-10.5688
▁industrielle	-10.5688
▁usage	-10.5693
▁Fo	-10.5693
39	-10.5695
47	-10.5697
Île	-10.5697
rit	-10.57
▁Finalement	-10.5703
▁renommée	-10.5704
finale	-10.5704
▁bateau	-10.5706
▁1.	-10.5707
EC	-10.5709
09	-10.5718
tter	-10.572
rée	-10.5724
▁+	-10.5725
▁logements	-10.5725
▁étoiles	-10.5726
▁nécessaires	-10.5734
▁Bla	-10.5739
ato	-10.5739
▁devenant	-10.5743
▁colonie	-10.5746
nais	-10.5749
▁baisse	-10.5752
▁im	-10.5755
▁collections	-10.5755
▁tenant	-10.5758
ssent	-10.5761
▁Venise	-10.5762
tur	-10.5763
ref	-10.5763
1.	-10.5765
▁laissant	-10.5766
▁propriétaires	-10.5766
▁thèmes	-10.5767
▁seraient	-10.5767
Jacques	-10.5769
▁avocat	-10.5773
fort	-10.5774
▁Danemark	-10.5776
▁recevoir	-10.5776
▁milliards	-10.5779
▁chercheurs	-10.578
▁règle	-10.5781
▁concentration	-10.5782
offre	-10.5788
échelle	-10.5788
▁or	-10.5789
▁possession	-10.5791
▁remplace	-10.5795
URSS	-10.5797
Di	-10.5798
▁désir	-10.5801
Ra	-10.5806
46	-10.5818
mir	-10.5819
▁séjour	-10.5821
_2	-10.5821
▁tuer	-10.5823
▁vaut	-10.5824
▁accident	-10.5825
▁Quatre	-10.5827
isée	-10.5827
▁souverain	-10.5832
▁effectué	-10.5835
▁noblesse	-10.5837
nés	-10.5841
eg	-10.5843
▁Front	-10.585
Bo	-10.585
▁Bois	-10.5859
▁accueilli	-10.586
▁fréquente	-10.5861
▁adopté	-10.5863
bach	-10.5863
gre	-10.5865
▁véhicule	-10.5868
▁Tokyo	-10.5875
▁guerres	-10.5879
▁Sir	-10.5882
avion	-10.5883
Ba	-10.5884
▁destination	-10.5885
ben	-10.5895
▁tenue	-10.5896
▁1984	-10.5897
▁parlementaire	-10.5899
▁description	-10.5904
▁1952	-10.5905
New	-10.5911
▁tourisme	-10.5916
▁participent	-10.5916
48	-10.592
Michel	-10.5926
▁faculté	-10.5928
▁parlement	-10.5932
▁nul	-10.5932
Henri	-10.5939
entraîneur	-10.5941
▁personnalité	-10.5943
▁char	-10.5943
cker	-10.5944
▁coups	-10.5946
▁septième	-10.5946
▁1870	-10.5948
gro	-10.5951
▁1982	-10.5953
mêmes	-10.5955
thé	-10.5955
Me	-10.5957
▁fédération	-10.5959
rio	-10.596
▁Inde	-10.5961
▁conscience	-10.5961
▁Gérard	-10.5967
aujourd	-10.5967
EP	-10.5968
No	-10.5968
rum	-10.5977
▁pierres	-10.5977
▁vigueur	-10.5979
▁devrait	-10.5981
stra	-10.5982
mal	-10.5985
▁nu	-10.5986
tine	-10.5987
▁comment	-10.5987
▁mécanique	-10.599
▁rattachée	-10.5992
▁paraît	-10.5994
▁choses	-10.5999
▁1925	-10.6
▁Liège	-10.6001
▁table	-10.6003
▁1910	-10.6005
▁plaine	-10.6005
▁centaines	-10.6007
▁particulière	-10.6009
▁Jérusalem	-10.601
bra	-10.601
He	-10.6011
▁Ter	-10.6013
▁partisans	-10.6015
65	-10.6017
▁rythme	-10.6018
oise	-10.6018
▁2016.	-10.6022
▁Parc	-10.6026
▁sculpteur	-10.6028
▁Bosnie	-10.6029
▁attaché	-10.6029
▁liens	-10.6031
▁Affaires	-10.6041
▁repose	-10.6041
▁goût	-10.6042
▁sou	-10.6044
ction	-10.6046
▁entrée	-10.6047
▁subi	-10.6047
ria	-10.6047
▁évoque	-10.6055
▁remise	-10.6059
▁"",	-10.606
▁2017.	-10.6061
▁King	-10.6062
▁constitutionnel	-10.6064
▁qualifie	-10.6065
acquisition	-10.6065
▁affluent	-10.6065
▁financement	-10.6067
▁entraîne	-10.6069
▁responsabilité	-10.6069
az	-10.607
▁foi	-10.6072
▁frais	-10.6072
opéra	-10.6076
eu	-10.6077
▁provinces	-10.6079
▁proposé	-10.6082
pel	-10.6086
▁traces	-10.6092
▁Bob	-10.6094
▁Thi	-10.6094
oir	-10.6095
▁sportif	-10.6095
ères	-10.6097
▁forteresse	-10.6097
▁Finlande	-10.61
▁mâle	-10.6103
▁dimension	-10.6105
▁avions	-10.6107
▁1996,	-10.6109
▁suivie	-10.611
▁paysage	-10.611
▁dessins	-10.611
▁1987	-10.6111
év	-10.6114
sky	-10.6116
▁disponibles	-10.612
Man	-10.6124
▁demandé	-10.6132
▁défi	-10.6133
▁commencent	-10.614
ken	-10.614
▁comprendre	-10.6147
▁transféré	-10.6148
eff	-10.615
bus	-10.615
▁risques	-10.6158
▁limites	-10.6161
empire	-10.6164
autoroute	-10.6164
▁Villa	-10.6165
mond	-10.617
▁boulevard	-10.6171
▁tourné	-10.6171
▁franc	-10.6179
▁mauvais	-10.618
▁individus	-10.6182
▁photographie	-10.6191
▁Palais	-10.6191
▁Gal	-10.6191
▁décor	-10.6193
▁Mas	-10.6193
▁poissons	-10.6196
▁défendre	-10.6198
IS	-10.6199
▁1985	-10.62
cor	-10.6201
spir	-10.6206
▁150	-10.6208
ange	-10.6209
▁Fils	-10.6209
▁cousin	-10.622
tage	-10.622
tus	-10.622
▁églises	-10.6221
▁Tre	-10.6223
▁populaires	-10.6228
Égypte	-10.6228
axe	-10.6231
▁dis	-10.6231
ça	-10.6232
▁Légion	-10.6239
▁chinoise	-10.6239
▁mini	-10.6243
▁femelle	-10.6244
08	-10.6245
ault	-10.6246
▁machine	-10.6248
▁puisse	-10.6254
▁volumes	-10.6255
▁pilotes	-10.6257
▁inférieure	-10.6259
▁vide	-10.6261
enquête	-10.6262
▁diplômé	-10.6265
rich	-10.6267
alors	-10.6268
▁33	-10.6279
▁baseball	-10.6283
éli	-10.6283
ring	-10.6285
ile	-10.6288
▁viennent	-10.6288
chet	-10.6292
pu	-10.63
▁gagné	-10.6304
▁contraint	-10.6308
pla	-10.6311
▁Gou	-10.6316
▁classiques	-10.6333
▁conférences	-10.6335
▁maîtrise	-10.6335
▁patron	-10.6337
▁citoyens	-10.6338
▁découvrir	-10.6338
▁manifestations	-10.634
▁acte	-10.6344
▁meilleures	-10.6344
▁organisations	-10.6344
▁Cou	-10.6344
ula	-10.6346
OS	-10.6349
▁pan	-10.6352
▁tchèque	-10.6357
rier	-10.6361
▁rare	-10.6362
▁Ren	-10.6363
▁travailleurs	-10.6366
▁rencontré	-10.6367
▁Force	-10.6368
▁défenseur	-10.6369
▁v	-10.637
▁archives	-10.637
▁actes	-10.6374
lement	-10.6374
▁Che	-10.6376
rel	-10.6376
▁démission	-10.6377
dom	-10.6378
nce	-10.6381
▁visage	-10.6388
rage	-10.639
▁Mil	-10.6391
▁Hans	-10.6392
▁Shi	-10.6396
▁concurrence	-10.6397
▁répond	-10.6399
▁cercle	-10.64
95	-10.64
iv	-10.6401
▁installations	-10.6401
▁attaques	-10.6407
▁peuples	-10.641
▁tracé	-10.6414
▁discipline	-10.6419
▁continent	-10.6422
Alpes	-10.6423
▁ta	-10.6426
91	-10.6428
▁terrains	-10.6428
▁communal	-10.6432
▁dimanche	-10.6436
▁relais	-10.6437
▁Lord	-10.644
▁signature	-10.6442
▁jusque	-10.6443
▁Ceci	-10.6443
ska	-10.6446
▁pages	-10.6447
44	-10.6449
ys	-10.6451
▁stratégie	-10.6452
▁cinquante	-10.6454
▁Texas	-10.6456
▁Pol	-10.6457
▁fixe	-10.6458
▁origines	-10.6462
▁Alpes	-10.6465
Car	-10.6467
▁1991,	-10.6469
▁Pri	-10.6469
pon	-10.6471
▁chrétienne	-10.6474
▁Lorraine	-10.6475
installer	-10.6478
▁moines	-10.6478
▁indépendante	-10.648
▁conséquent	-10.6483
▁1990.	-10.6493
▁issue	-10.6495
▁densité	-10.6496
▁déterminer	-10.65
trice	-10.6503
▁bou	-10.6505
▁fédérale	-10.6505
ingénieur	-10.6516
▁papier	-10.652
▁moindre	-10.6521
▁Prague	-10.6521
▁Pacifique	-10.6521
actrice	-10.6523
▁ouest	-10.6527
▁enterré	-10.6528
▁Cre	-10.6529
▁Bat	-10.6534
élé	-10.6536
▁clair	-10.6539
▁employé	-10.654
▁Noël	-10.6541
▁secret	-10.6542
▁réel	-10.6544
▁attribué	-10.6544
▁précisément	-10.6545
▁poursuivre	-10.6546
▁Renaissance	-10.6547
▁Vincent	-10.6547
uri	-10.6547
▁coalition	-10.655
cle	-10.6552
▁provoque	-10.6552
▁industriel	-10.6553
▁Belle	-10.6555
fo	-10.6556
▁toit	-10.6559
▁construits	-10.6564
▁Nice	-10.6564
▁Inter	-10.6565
Oise	-10.6565
▁veille	-10.6565
▁puits	-10.6566
▁cantons	-10.6567
▁quarante	-10.6569
intervention	-10.6569
▁leader	-10.6571
▁fournir	-10.6576
▁centres	-10.6577
▁apparaissent	-10.6577
not	-10.6578
▁ruisseau	-10.6579
▁libéré	-10.6581
▁1950,	-10.6589
▁arrivée	-10.6591
▁annuel	-10.6593
▁1912	-10.6593
Étienne	-10.6594
AM	-10.6595
Atlantique	-10.6598
▁Ste	-10.6598
▁charbon	-10.6598
▁machines	-10.6598
▁You	-10.6599
vet	-10.6599
illé	-10.6601
▁conserver	-10.6601
7,	-10.6606
▁représenter	-10.6608
tru	-10.6608
Mer	-10.6612
▁Scott	-10.6613
oï	-10.6614
entraînement	-10.6617
▁catholiques	-10.662
bal	-10.6623
▁rappelle	-10.6626
▁remporter	-10.6627
▁laboratoire	-10.6627
ites	-10.6627
▁Caroline	-10.6629
dar	-10.663
▁Hal	-10.6631
voy	-10.6632
▁Kh	-10.6635
▁changer	-10.6636
▁normale	-10.6638
07	-10.6639
existe	-10.6643
▁catégories	-10.6644
Ta	-10.6645
▁prénom	-10.6646
▁Hill	-10.6649
▁lit	-10.665
▁répartis	-10.6651
▁Salon	-10.6654
▁verre	-10.6659
▁Sar	-10.6659
▁mettent	-10.666
AP	-10.6661
▁destinée	-10.6661
▁américaines	-10.6665
▁bilan	-10.6667
▁retard	-10.6667
wood	-10.6668
old	-10.6669
ost	-10.6672
▁transmission	-10.6672
▁âge	-10.6672
▁1926	-10.6672
▁inc	-10.6674
lle	-10.6674
▁su	-10.6675
▁assurer	-10.6676
cur	-10.6681
kov	-10.6682
ight	-10.6684
ado	-10.6685
▁Edward	-10.6685
▁morceaux	-10.6687
67	-10.6691
▁successivement	-10.6691
ep	-10.6694
▁consacrée	-10.6696
▁regard	-10.6698
pan	-10.6701
▁Hy	-10.6706
▁historiens	-10.6707
▁César	-10.6711
▁réélu	-10.6714
oul	-10.6715
dd	-10.6717
well	-10.6724
▁enregistre	-10.6725
Mont	-10.6725
bor	-10.6726
36	-10.673
▁présentée	-10.6733
▁étage	-10.674
▁1997,	-10.6741
titre	-10.675
78	-10.6751
nelle	-10.6752
▁Sun	-10.6752
▁Company	-10.6753
▁Nam	-10.6755
▁opération	-10.676
▁autrefois	-10.6763
▁paroles	-10.6765
ama	-10.6765
▁café	-10.6769
extrême	-10.677
▁Chili	-10.677
▁Ex	-10.6771
▁Munich	-10.6772
▁fermé	-10.6776
▁Yu	-10.6776
▁banlieue	-10.6779
▁variété	-10.6779
▁campagnes	-10.678
feld	-10.678
▁annuelle	-10.6782
05	-10.6783
▁âgé	-10.6789
▁principes	-10.6793
▁envoie	-10.6794
▁Sen	-10.6795
burg	-10.6796
42	-10.6801
▁suivent	-10.6802
▁exposition	-10.6803
observation	-10.6808
mb	-10.6814
▁spécialisée	-10.6816
?	-10.682
▁portrait	-10.6821
▁fera	-10.6823
assi	-10.6823
▁poèmes	-10.6823
▁Contrairement	-10.6825
nder	-10.6825
▁géographique	-10.6825
▁Ur	-10.6827
▁oncle	-10.6829
▁1917	-10.683
▁1983	-10.6831
▁clip	-10.6835
73	-10.6837
▁milieux	-10.6842
▁passagers	-10.6842
▁peint	-10.6843
▁Congo	-10.6843
▁duquel	-10.6845
▁produite	-10.6846
pos	-10.6846
cht	-10.6848
assurer	-10.6848
ath	-10.6851
▁juridique	-10.6855
▁spatiale	-10.6856
5,	-10.6857
sous	-10.6859
▁jouent	-10.6862
▁Mur	-10.6862
Se	-10.6863
mp	-10.6865
gh	-10.6866
▁Antonio	-10.6868
▁transformation	-10.6869
▁36	-10.687
▁reliant	-10.6871
zu	-10.6871
▁chrétiens	-10.6872
▁soutenir	-10.6877
▁Rose	-10.6878
▁Arts	-10.6879
huit	-10.6881
rom	-10.6881
▁électronique	-10.6894
▁supplémentaires	-10.6894
▁Os	-10.6894
▁Roman	-10.6897
▁péninsule	-10.6897
esse	-10.6899
▁versant	-10.6899
téri	-10.6901
▁scolaire	-10.6905
▁Tur	-10.6905
▁1981	-10.6906
uz	-10.6909
▁francs	-10.6911
aise	-10.6912
69	-10.6917
▁maréchal	-10.692
85	-10.6921
▁Football	-10.6924
▁bandes	-10.6926
lar	-10.6927
identité	-10.6928
introduction	-10.693
▁tire	-10.6933
ié	-10.6936
ala	-10.6938
▁tenir	-10.694
▁remis	-10.6946
▁2019.	-10.6946
▁logiciel	-10.6947
▁North	-10.6947
tic	-10.6947
jou	-10.6949
79	-10.6952
ave	-10.6953
▁juifs	-10.6955
▁blancs	-10.6957
▁cuisine	-10.696
▁drapeau	-10.6961
▁pertes	-10.6964
installation	-10.6965
▁Cas	-10.6971
ati	-10.6973
PS	-10.6974
▁réputation	-10.6977
▁étapes	-10.6978
ateurs	-10.6979
▁vestiges	-10.6989
▁sœurs	-10.6989
élevait	-10.6991
▁cesse	-10.6992
▁mairie	-10.6995
teurs	-10.6997
▁1999.	-10.7002
hy	-10.7002
▁Brown	-10.7003
▁violence	-10.7006
ls	-10.7019
▁bientôt	-10.702
▁rapports	-10.7021
zan	-10.7022
▁commerciale	-10.7034
▁Auguste	-10.7034
▁convention	-10.7038
chen	-10.7038
▁Mag	-10.7039
▁hautes	-10.7045
▁objectifs	-10.7045
▁quoi	-10.7046
▁latine	-10.7047
▁pourquoi	-10.705
▁ailes	-10.7051
cré	-10.7052
▁opposition	-10.7058
▁remarquable	-10.7062
▁marquis	-10.7063
bles	-10.7063
▁difficulté	-10.7065
▁utilisent	-10.7066
inscrit	-10.7067
mie	-10.7073
▁correspondance	-10.7073
▁sainte	-10.7084
uch	-10.7087
72	-10.7087
▁postes	-10.7087
▁analyse	-10.7088
▁évoluant	-10.7088
ial	-10.7089
▁provient	-10.709
▁adapté	-10.7099
▁pieds	-10.71
▁Arthur	-10.7102
taire	-10.7103
▁établit	-10.7104
▁réduite	-10.7104
▁1976	-10.7105
▁battant	-10.7105
▁soins	-10.7108
▁filiale	-10.7111
▁Région	-10.7111
▁fréquemment	-10.7114
▁séparation	-10.7114
bes	-10.7116
▁largeur	-10.7117
▁responsables	-10.7119
▁1921	-10.7121
▁placée	-10.7122
▁sable	-10.7122
▁intérêt	-10.7127
▁judiciaire	-10.7131
▁Roumanie	-10.7131
ów	-10.7131
▁Gro	-10.7132
issant	-10.7133
▁obtenus	-10.7136
▁pouvaient	-10.7141
André	-10.7141
▁Cer	-10.7146
▁Big	-10.7146
achat	-10.7147
▁tr	-10.7147
▁Édouard	-10.7149
▁enquête	-10.7154
▁instruments	-10.7154
▁2018.	-10.7154
▁arbres	-10.7154
cent	-10.7156
▁fenêtres	-10.7161
ric	-10.7162
▁cancer	-10.7165
▁nomination	-10.7166
▁Varsovie	-10.7168
ora	-10.7172
ple	-10.7173
och	-10.7178
▁côtes	-10.7186
Homme	-10.7199
▁montrent	-10.72
▁inscrits	-10.7201
arra	-10.7205
équipage	-10.721
exécution	-10.7211
▁Pre	-10.7215
▁Méditerranée	-10.7217
raient	-10.7217
▁conservateur	-10.7224
▁Tunisie	-10.7226
▁Street	-10.7227
▁financière	-10.7228
▁sortant	-10.7234
Seine	-10.7235
marin	-10.7235
Si	-10.7236
▁White	-10.7237
▁1992,	-10.724
abri	-10.7243
▁marié	-10.7244
▁Kat	-10.7248
▁longues	-10.7251
accueil	-10.7252
▁barre	-10.7252
▁Boston	-10.7252
▁blessés	-10.7253
▁Walter	-10.7257
▁compagnies	-10.7257
▁revenus	-10.7258
▁2004.	-10.7258
▁vivent	-10.7261
▁prévoit	-10.7264
▁1979	-10.7264
▁Florence	-10.7269
▁accessible	-10.7269
▁Sp	-10.727
▁dizaine	-10.7273
Be	-10.7274
ova	-10.7275
71	-10.7275
aine	-10.7275
▁neveu	-10.7276
▁libéral	-10.7281
▁reconstruction	-10.7281
04	-10.7284
▁XIII	-10.7284
▁employés	-10.7284
▁plat	-10.7286
43	-10.7289
▁contrairement	-10.729
tit	-10.7292
▁célèbres	-10.7296
▁duché	-10.7296
attraction	-10.7298
▁dénomination	-10.7302
▁confiance	-10.7302
▁citer	-10.7302
▁approche	-10.7302
▁1920	-10.7305
▁antique	-10.7306
▁1923	-10.7306
▁distinction	-10.7308
▁commença	-10.7309
▁endroit	-10.7309
▁départementale	-10.731
▁venant	-10.7317
araignées	-10.7319
stein	-10.732
▁estimée	-10.7326
88	-10.7329
wan	-10.7329
▁environs	-10.7331
attention	-10.7335
▁répondre	-10.7339
▁différent	-10.7339
▁établissement	-10.734
▁Bell	-10.734
▁favorable	-10.7343
sé	-10.7347
77	-10.7348
▁peau	-10.7349
▁exclusivement	-10.7351
SA	-10.7353
atrice	-10.7361
lly	-10.7363
ombre	-10.7364
▁Mars	-10.7367
▁partiellement	-10.7369
mas	-10.7374
▁Green	-10.7374
▁décrite	-10.7377
41	-10.7381
▁fruits	-10.7383
▁Trans	-10.7384
▁support	-10.7384
▁vend	-10.7386
Ho	-10.7391
lat	-10.7391
▁conservation	-10.7392
vol	-10.7392
▁Lorsqu	-10.7392
▁signal	-10.7393
▁positions	-10.7393
▁contribue	-10.7395
▁rédacteur	-10.7398
▁Wil	-10.7398
▁1974	-10.7403
▁rose	-10.7405
▁sculpture	-10.7406
cin	-10.7406
▁bénéficie	-10.7408
▁défend	-10.7409
▁métier	-10.7414
▁préfet	-10.7415
▁alliés	-10.7418
▁télescope	-10.7419
États	-10.7421
▁maximale	-10.7422
▁chantier	-10.7423
▁froid	-10.7424
▁servant	-10.7424
▁collabore	-10.7425
▁Wal	-10.7429
▁traite	-10.7431
▁podium	-10.7433
▁morceau	-10.7434
▁Top	-10.7437
tré	-10.7437
▁bases	-10.7437
ative	-10.7441
ei	-10.7441
▁no	-10.7442
▁jouant	-10.7442
▁colline	-10.7443
▁biais	-10.7444
▁poème	-10.7446
▁Même	-10.7447
▁espaces	-10.7448
▁huitième	-10.7457
abandon	-10.7458
heim	-10.746
▁River	-10.7462
ente	-10.7463
▁traditionnel	-10.7464
▁web	-10.7466
assemblée	-10.7473
expédition	-10.7477
▁Williams	-10.7477
▁décident	-10.7477
▁Act	-10.7479
▁Jacob	-10.748
▁mené	-10.7483
ern	-10.7484
imposer	-10.7484
▁affecté	-10.7485
▁pic	-10.7489
▁Montpellier	-10.7489
▁treize	-10.75
ace	-10.7504
96	-10.7506
▁abandonne	-10.7506
86	-10.7508
▁VII	-10.7516
▁guitariste	-10.7517
▁Stra	-10.7518
▁reçut	-10.7518
▁gris	-10.7522
▁plaque	-10.753
pri	-10.753
▁inauguré	-10.7531
▁villa	-10.7531
▁2020.	-10.7532
▁réduction	-10.7532
▁inhumé	-10.7535
▁Victoria	-10.7535
▁transition	-10.754
▁Provence	-10.7541
▁allemandes	-10.7542
▁émission	-10.7548
▁tunnel	-10.7549
▁1911	-10.755
▁situées	-10.7551
▁varie	-10.7551
anti	-10.7552
▁intérêts	-10.7552
▁régionales	-10.7552
appareil	-10.7554
▁hôtel	-10.7555
▁coureur	-10.7558
▁cou	-10.7559
▁Kra	-10.7559
▁vapeur	-10.7559
▁Es	-10.7561
aile	-10.7565
▁limité	-10.7568
▁définit	-10.7569
▁maladies	-10.7569
01	-10.757
▁appartenait	-10.757
▁frontières	-10.7574
▁confirme	-10.7576
emme	-10.7577
▁oiseaux	-10.7577
▁nécessité	-10.7577
▁soleil	-10.7581
▁Mus	-10.7581
exemple	-10.7582
Anne	-10.7582
▁image	-10.7584
55	-10.7585
▁résolution	-10.7585
académie	-10.7588
▁semblent	-10.7588
▁Anna	-10.7588
atelier	-10.7591
▁Mat	-10.7593
appelle	-10.7598
▁musicien	-10.7601
▁cultures	-10.7604
▁cm	-10.7605
▁surnom	-10.7607
▁capital	-10.7609
▁calculer	-10.7611
Na	-10.7611
▁fouilles	-10.7612
▁toile	-10.7612
▁mener	-10.7616
▁possèdent	-10.7618
▁1980.	-10.762
los	-10.762
▁suédois	-10.7623
▁déclin	-10.7625
▁étudier	-10.7626
▁tués	-10.7628
ast	-10.7629
▁extrêmement	-10.7633
▁quitté	-10.7635
agne	-10.7637
▁fournit	-10.7637
égalité	-10.7637
▁compétences	-10.7638
▁ajoute	-10.764
▁Grenoble	-10.7641
▁albédo	-10.7641
▁dure	-10.7642
▁procédé	-10.7644
▁efforts	-10.7644
▁Ray	-10.7645
]]	-10.7647
▁cal	-10.765
▁domination	-10.7652
▁Versailles	-10.7655
Luc	-10.7657
▁contemporain	-10.7658
▁1977	-10.7662
▁disques	-10.7664
ł	-10.7667
▁sports	-10.7667
▁essai	-10.767
▁1978	-10.7671
▁maillot	-10.7677
nan	-10.7678
uc	-10.7678
▁naturelles	-10.7679
▁restant	-10.7679
▁assassiné	-10.7679
▁Qu	-10.768
▁caractères	-10.768
issa	-10.7686
éri	-10.7694
por	-10.7699
▁mises	-10.77
Nord	-10.7701
sie	-10.7703
▁événement	-10.7708
▁mixte	-10.7709
ignon	-10.7713
ible	-10.7713
Lo	-10.7716
▁collectif	-10.7717
▁Dou	-10.7717
▁marins	-10.7717
▁lancée	-10.7718
tr	-10.7718
▁1971	-10.772
▁basque	-10.7723
▁1993,	-10.7725
▁qualification	-10.773
▁écologique	-10.7734
▁Nancy	-10.7734
▁coule	-10.7737
▁Metz	-10.774
chev	-10.7742
▁provisoire	-10.7742
▁intégré	-10.7746
▁pavillon	-10.7748
▁Internet	-10.7749
frère	-10.7751
▁réalisés	-10.7753
chu	-10.7755
▁divisé	-10.7758
▁sanctuaire	-10.7759
tée	-10.7762
cou	-10.7763
nom	-10.7765
▁grave	-10.7766
▁faute	-10.7767
ase	-10.777
▁toponyme	-10.7774
mm	-10.7775
▁fondateurs	-10.7775
assassinat	-10.7776
▁demander	-10.7778
▁écrire	-10.7779
▁Anglais	-10.7786
ER	-10.7787
cia	-10.779
▁Six	-10.7792
▁poule	-10.7793
▁municipales	-10.7793
▁portail	-10.7798
▁Association	-10.78
56	-10.7801
▁Wi	-10.7804
▁cri	-10.7804
und	-10.7805
dra	-10.7805
ition	-10.781
▁ch	-10.7813
kar	-10.7814
▁musulmans	-10.7814
IC	-10.782
▁attendre	-10.7824
▁devaient	-10.7825
Denis	-10.7825
▁déclaration	-10.783
▁fleur	-10.7836
▁colonnes	-10.7842
▁jury	-10.7847
▁secours	-10.7849
▁relative	-10.7849
▁2005.	-10.7849
98	-10.785
▁spécial	-10.7851
▁troubles	-10.7851
essentiel	-10.7857
aff	-10.7859
▁urbain	-10.786
▁liquide	-10.786
▁1913	-10.7863
▁pa	-10.7864
▁Gr	-10.7867
▁sacré	-10.7867
▁suprême	-10.7868
▁universités	-10.7869
▁Reich	-10.787
▁logique	-10.787
shire	-10.7871
▁Israël	-10.7876
pes	-10.7877
▁Géorgie	-10.7878
échange	-10.7881
aventure	-10.7885
▁russes	-10.7885
▁mar	-10.7886
▁Dr	-10.7888
▁connues	-10.7888
autant	-10.7888
▁spéciale	-10.7893
œ	-10.7894
59	-10.7894
▁Mau	-10.7896
▁établie	-10.7897
Joseph	-10.79
▁Rouen	-10.79
▁totalité	-10.7906
▁Yo	-10.7907
▁pseudonyme	-10.7908
▁Naples	-10.7908
nard	-10.7911
▁émis	-10.7916
▁Tr	-10.7917
▁défini	-10.7918
euses	-10.792
▁monte	-10.7921
▁perspective	-10.7926
▁seigneurs	-10.7927
union	-10.7933
▁lanceur	-10.7934
archipel	-10.7937
▁Syrie	-10.7937
▁Dominique	-10.7937
▁vise	-10.7944
rique	-10.7944
lou	-10.7947
ical	-10.7948
▁UA	-10.7949
▁troupe	-10.795
▁rouges	-10.7954
▁queue	-10.7958
▁mourut	-10.7959
▁soirée	-10.796
nent	-10.7962
▁ouvriers	-10.7963
▁représentations	-10.7964
▁Love	-10.7966
sept	-10.7968
AD	-10.7969
▁Cameroun	-10.797
lès	-10.7973
▁conseils	-10.7973
autel	-10.7976
▁Marguerite	-10.7979
len	-10.7982
pré	-10.7986
▁Très	-10.7988
▁Jackson	-10.7988
udi	-10.7989
▁exerce	-10.7989
▁dynamique	-10.799
▁marquant	-10.7991
▁unies	-10.7992
▁Jones	-10.7994
orientation	-10.7994
▁1905	-10.7995
▁formant	-10.7996
▁Rennes	-10.7999
87	-10.8001
▁touche	-10.8007
▁rupture	-10.8007
nou	-10.8008
89	-10.8009
î	-10.8009
sud	-10.8011
importe	-10.8011
▁Afin	-10.8015
▁natale	-10.8018
▁Neu	-10.8018
▁développée	-10.8019
▁importance	-10.8026
▁42	-10.8027
acte	-10.8028
▁Kim	-10.8031
AN	-10.8034
▁surnommé	-10.8035
▁expose	-10.8048
die	-10.805
▁soumis	-10.8051
aro	-10.8055
▁cyrillique	-10.8055
▁rencontrent	-10.8055
ures	-10.8057
▁Dal	-10.8061
lam	-10.8064
eb	-10.8066
▁Fondation	-10.8067
▁Ans	-10.8068
▁profession	-10.8069
agence	-10.807
▁sprint	-10.807
▁Toutes	-10.807
▁pal	-10.8072
▁tramway	-10.8074
64	-10.8081
nov	-10.8082
06	-10.8085
▁républicain	-10.8086
gin	-10.8088
▁chaleur	-10.8089
▁formée	-10.8093
74	-10.8094
tain	-10.8096
▁38	-10.8096
▁gothique	-10.8099
intéresse	-10.81
▁négociations	-10.81
appui	-10.8103
aga	-10.8103
ieux	-10.8104
▁rapporte	-10.8105
▁prévue	-10.8105
▁TV	-10.8106
▁manuscrit	-10.8107
▁Kong	-10.8108
▁Tan	-10.8109
▁amateur	-10.8109
▁riches	-10.8109
enberg	-10.8109
▁voisine	-10.8111
mu	-10.8112
▁Bour	-10.8116
alimentation	-10.8118
▁Sha	-10.8121
▁délégation	-10.8126
▁Membre	-10.813
▁parisienne	-10.8131
CI	-10.8132
▁34	-10.8132
mit	-10.8137
▁sénateur	-10.8142
▁changé	-10.8142
▁péri	-10.8143
▁Service	-10.8146
appellation	-10.8148
Paris	-10.8148
évaluation	-10.8149
▁retrouvé	-10.8149
▁Toronto	-10.8152
▁transformé	-10.8156
▁invité	-10.8156
▁décennies	-10.8158
▁retrouvent	-10.8158
▁Pic	-10.8158
▁Ensuite	-10.8159
▁conséquences	-10.816
rus	-10.816
▁fermeture	-10.8164
▁facteurs	-10.8164
lée	-10.8165
▁bourse	-10.8167
▁tournant	-10.8174
81	-10.8174
▁publications	-10.8174
ensis	-10.8175
▁Alfred	-10.8176
▁Bad	-10.8177
▁turc	-10.8188
▁colonne	-10.8188
▁impossible	-10.819
▁voient	-10.819
ye	-10.8191
▁bureaux	-10.8191
rés	-10.8193
▁installée	-10.8195
▁visiteurs	-10.8196
▁défaites	-10.8196
▁Sh	-10.8197
gra	-10.82
▁Défense	-10.8205
âme	-10.8205
▁Banque	-10.8206
▁accueillir	-10.8207
▁épi	-10.8208
▁réunit	-10.8212
▁Denis	-10.8212
acide	-10.8214
▁agents	-10.8216
logie	-10.822
Pa	-10.8225
▁resté	-10.8226
▁faux	-10.8227
log	-10.8228
▁heure	-10.8228
▁aider	-10.8232
nisme	-10.8238
oz	-10.824
▁Island	-10.824
▁procédure	-10.8241
▁Olivier	-10.8242
▁Society	-10.8242
avenir	-10.8246
▁1953	-10.8247
▁application	-10.8249
▁confirmé	-10.8249
▁Anton	-10.8251
▁partenariat	-10.8254
▁bateaux	-10.8254
▁mor	-10.8255
▁compilation	-10.8258
03	-10.8261
▁meurtre	-10.8262
▁naturels	-10.8265
▁retire	-10.8267
Ch	-10.8273
dal	-10.8279
cro	-10.8279
▁départements	-10.828
MA	-10.8284
nik	-10.8287
▁bo	-10.8289
aria	-10.8289
▁rêve	-10.829
eng	-10.8292
▁néerlandaise	-10.8293
▁pourraient	-10.8294
▁Ross	-10.8294
76	-10.8295
▁nécessite	-10.8297
▁Ed	-10.8299
▁intervient	-10.8299
▁soixante	-10.8299
▁puissant	-10.8299
▁nourriture	-10.83
▁champs	-10.83
▁continuer	-10.8301
▁dirigeant	-10.8301
▁dimensions	-10.8301
graphie	-10.8302
▁recours	-10.8304
sti	-10.8311
▁vingtaine	-10.8312
▁Hong	-10.8313
▁pur	-10.8314
▁maintien	-10.8316
▁extension	-10.8316
▁cons	-10.8318
▁expositions	-10.8326
▁1967	-10.833
▁1969	-10.833
▁voisins	-10.8334
ral	-10.8335
▁soi	-10.8336
▁Formule	-10.8337
Laurent	-10.8338
02	-10.8339
urgence	-10.8341
▁humaines	-10.8344
▁théologie	-10.8344
▁montrer	-10.8352
▁passion	-10.8353
▁étages	-10.8353
▁Joe	-10.8354
▁dédié	-10.8354
▁réception	-10.8357
▁efficace	-10.8366
eck	-10.8367
▁Qui	-10.8367
▁contribué	-10.8368
ava	-10.8368
▁Chris	-10.837
▁agent	-10.8373
▁Samuel	-10.8376
▁participa	-10.8379
▁Mir	-10.8385
illes	-10.8388
▁Bol	-10.8391
▁existent	-10.8391
Organisation	-10.8391
gni	-10.8399
▁Nationale	-10.8404
▁contemporaine	-10.8405
▁2002.	-10.8409
▁donna	-10.8409
▁conflits	-10.8411
Er	-10.8412
▁Garde	-10.8415
écart	-10.8419
bul	-10.8423
opinion	-10.8427
▁dispositif	-10.8427
▁surveillance	-10.843
aller	-10.8431
▁Ferdinand	-10.8432
▁message	-10.8439
▁Sim	-10.8448
mant	-10.845
▁blessure	-10.8455
▁Fou	-10.8455
inspiration	-10.8456
▁augmentation	-10.8457
▁terrestre	-10.8457
▁avion	-10.8457
éditeur	-10.8458
▁frappe	-10.8458
▁ennemis	-10.8458
▁Roy	-10.8459
▁Johann	-10.846
▁médailles	-10.8462
▁signifiant	-10.8464
▁entame	-10.8465
▁portugais	-10.8468
▁jardins	-10.8469
yan	-10.847
58	-10.8473
▁tonnes	-10.8473
▁différente	-10.8475
▁United	-10.8476
▁cadet	-10.848
▁Eu	-10.8481
▁suffrages	-10.8483
▁enfance	-10.8483
▁Giovanni	-10.8484
infrarouge	-10.8487
nal	-10.849
▁fa	-10.8497
Pro	-10.8498
▁fortune	-10.8502
▁Mort	-10.8503
sha	-10.8504
win	-10.8504
▁mentionné	-10.8504
ug	-10.851
▁centaine	-10.851
▁entouré	-10.8513
▁clients	-10.8515
▁Cup	-10.8521
61	-10.8522
▁garnison	-10.8523
▁neige	-10.8524
▁Carlos	-10.8525
▁civils	-10.8526
▁veuve	-10.8526
▁occupée	-10.8528
68	-10.8529
▁salon	-10.8531
▁thé	-10.8533
tern	-10.8536
▁1989,	-10.8537
▁simples	-10.8539
▁fuite	-10.8539
▁seize	-10.8541
Euro	-10.8544
comp	-10.8545
▁spectateurs	-10.8553
ours	-10.8556
ín	-10.8556
AF	-10.8557
▁augmente	-10.856
ât	-10.8562
▁Serge	-10.8563
▁vieille	-10.8563
66	-10.8565
▁Dol	-10.8566
▁1880	-10.8566
▁God	-10.8566
▁bataillon	-10.857
avenue	-10.857
hen	-10.857
▁solide	-10.8571
▁potentiel	-10.8572
intégration	-10.8576
êt	-10.8579
▁dieu	-10.858
▁rarement	-10.8581
▁classification	-10.8589
▁bloc	-10.859
▁Racing	-10.8593
▁tenter	-10.8594
▁sauver	-10.86
▁Convention	-10.86
▁financier	-10.8603
vous	-10.8604
▁reconnue	-10.8607
▁Manuel	-10.8609
▁spécialisé	-10.8609
▁élue	-10.8612
▁Début	-10.8612
▁Lincoln	-10.8616
▁Ye	-10.8616
éra	-10.8616
▁figures	-10.8618
▁Père	-10.8619
▁photographe	-10.862
▁ingénieur	-10.8622
▁fréquence	-10.8625
▁chance	-10.8631
▁remarque	-10.8632
▁Pyrénées	-10.8632
tou	-10.8634
▁promouvoir	-10.8636
plus	-10.8639
SE	-10.8644
nois	-10.8645
instruction	-10.8646
▁divisée	-10.8647
▁Br	-10.8647
▁vi	-10.8653
St	-10.8653
▁clan	-10.8655
town	-10.866
▁clé	-10.866
▁couche	-10.8663
▁Johnson	-10.8667
▁catalogue	-10.8667
▁commis	-10.867
▁bouche	-10.867
▁inclus	-10.8671
▁Awards	-10.8677
ish	-10.868
nas	-10.8685
▁intérieure	-10.8687
▁poursuite	-10.8689
▁2001.	-10.869
▁DVD	-10.8691
zon	-10.8691
ika	-10.8692
▁universelle	-10.8692
▁Soleil	-10.8692
CE	-10.8696
ax	-10.8701
▁junior	-10.8702
aille	-10.8703
aki	-10.8705
▁Rhône	-10.8707
▁appareil	-10.8707
▁familiale	-10.8713
américaine	-10.8716
▁fiction	-10.8716
▁ministres	-10.8716
gla	-10.8719
▁75	-10.8721
etti	-10.8721
▁championne	-10.8722
▁associée	-10.8722
62	-10.8727
▁fief	-10.8727
▁facile	-10.8728
▁trophée	-10.873
yer	-10.8731
▁Pie	-10.8731
AR	-10.8731
▁ordonné	-10.8735
éd	-10.8735
▁Floride	-10.8735
▁1970.	-10.8736
▁lignée	-10.874
hard	-10.8741
Antoine	-10.8744
mani	-10.875
▁passent	-10.875
ting	-10.8754
▁admis	-10.8757
▁île	-10.8758
ét	-10.8759
▁déplacement	-10.8761
▁Quant	-10.8762
▁retourner	-10.8766
▁philosophe	-10.8767
Go	-10.8767
▁rentre	-10.8769
▁carbone	-10.8772
▁australien	-10.8774
▁Sport	-10.8775
▁entrer	-10.8776
els	-10.8776
are	-10.8777
tisme	-10.8779
▁vendus	-10.8785
fin	-10.8787
▁refus	-10.8787
Ka	-10.8795
▁dépôt	-10.8795
▁colonies	-10.8795
2009	-10.8798
▁mu	-10.88
▁quel	-10.8801
▁monnaie	-10.8802
int	-10.8803
▁réside	-10.8803
▁solaire	-10.8805
▁2003.	-10.8812
▁vérité	-10.8814
▁échec	-10.8815
▁major	-10.8816
▁génie	-10.8816
▁candidature	-10.8816
agissait	-10.8818
▁cible	-10.8823
▁profil	-10.8826
ding	-10.8827
cas	-10.8828
▁Rhin	-10.8829
54	-10.883
type	-10.8831
tie	-10.8834
All	-10.8835
▁territoriale	-10.8839
▁rendent	-10.8839
▁critères	-10.884
Mi	-10.8841
vic	-10.8842
▁pousse	-10.8843
▁Britanniques	-10.8844
▁ba	-10.8846
▁48	-10.8849
Germain	-10.885
▁garder	-10.8851
▁Cass	-10.8853
▁permanente	-10.8853
pie	-10.8854
▁doté	-10.8854
▁présentation	-10.8858
jan	-10.8862
▁participants	-10.8864
▁remplacée	-10.8864
▁Clermont	-10.8866
Alliance	-10.8866
▁manifeste	-10.8867
lation	-10.8868
chy	-10.887
Aquitaine	-10.887
▁légère	-10.8872
▁intégrée	-10.8873
ort	-10.8873
approche	-10.8876
pol	-10.8879
▁qualifié	-10.8881
▁genres	-10.8882
▁Comp	-10.8883
▁Rad	-10.8886
▁doublé	-10.8886
▁jette	-10.8888
▁1933	-10.8895
▁1998.	-10.8898
▁médiévale	-10.89
▁masculine	-10.8903
▁44	-10.8906
▁retirer	-10.8906
oy	-10.891
assurance	-10.8911
▁formations	-10.8914
▁vocation	-10.8915
▁Julien	-10.8916
Marne	-10.8917
▁secteurs	-10.8918
▁trace	-10.892
▁classés	-10.8923
niste	-10.8923
▁influencé	-10.8927
▁interprété	-10.8928
écrit	-10.8929
zé	-10.8934
tha	-10.8936
▁adaptation	-10.894
▁Asie	-10.894
aceae	-10.8942
▁Ph	-10.8944
▁1965	-10.8945
▁chercher	-10.8946
cat	-10.8947
gué	-10.8947
▁Fra	-10.895
▁Gre	-10.8951
▁décède	-10.8951
aviation	-10.8952
▁chasseurs	-10.8954
▁Gold	-10.8955
▁Wood	-10.896
▁composés	-10.8961
fra	-10.8961
▁Angel	-10.8962
▁constante	-10.8962
▁Zo	-10.8962
iennes	-10.8962
euil	-10.8963
▁voisin	-10.8964
▁faits	-10.8967
▁Mike	-10.8967
▁spécifiques	-10.8968
annonce	-10.8968
▁vêtements	-10.897
Mexique	-10.8974
▁mit	-10.8975
▁carré	-10.8975
▁At	-10.8976
ssel	-10.8979
63	-10.8981
▁alliance	-10.8981
▁Prince	-10.8981
▁tend	-10.8985
ign	-10.8987
▁Bourbon	-10.8988
▁XIV	-10.899
▁remportant	-10.899
bot	-10.8992
▁Rouge	-10.8994
▁environnement	-10.9
Da	-10.9001
▁1907	-10.9008
▁inclut	-10.9008
▁possédait	-10.9008
▁assistant	-10.9011
▁occidental	-10.9017
▁1988,	-10.902
▁May	-10.9021
▁Bert	-10.9024
huile	-10.9024
▁obligatoire	-10.9026
▁Ken	-10.9033
▁Collège	-10.9033
▁Culture	-10.9034
▁duo	-10.9035
▁cuivre	-10.9037
bit	-10.9037
▁Wo	-10.9037
▁art	-10.9039
ome	-10.904
investissement	-10.904
▁métal	-10.9042
▁ruines	-10.9046
▁constructeur	-10.9054
▁batterie	-10.9055
▁Canal	-10.9056
RA	-10.9057
▁Constantinople	-10.9057
▁voulait	-10.9057
▁évolué	-10.9061
SC	-10.9063
▁connaissances	-10.9065
AL	-10.9065
▁Parallèlement	-10.9065
lus	-10.9067
atmosphère	-10.9069
▁Fla	-10.9072
▁tirs	-10.9073
ity	-10.9074
▁penser	-10.9074
▁sexe	-10.9075
▁noirs	-10.9076
▁fruit	-10.9081
▁bal	-10.9081
▁minimum	-10.9082
entretien	-10.9084
apport	-10.9086
▁séminaire	-10.9086
▁Cri	-10.9088
gas	-10.9089
▁Eugène	-10.9091
▁démarche	-10.9094
▁Laval	-10.9095
stre	-10.9097
Je	-10.9102
▁Tony	-10.9103
ett	-10.9103
quant	-10.9104
sey	-10.9105
▁quatorze	-10.9111
▁durable	-10.9112
Ju	-10.9113
▁interview	-10.9116
MI	-10.9117
▁islamique	-10.9119
▁Steve	-10.9125
▁confie	-10.9126
▁douce	-10.9129
▁Roche	-10.9133
▁surprise	-10.9135
▁grève	-10.9136
▁Survey	-10.9136
▁viande	-10.9136
▁journalistes	-10.9139
▁acheté	-10.914
oire	-10.9144
▁1934	-10.9144
nar	-10.9144
form	-10.9144
▁Ze	-10.9146
▁amie	-10.9147
▁Matt	-10.9148
▁adultes	-10.9148
▁anglo	-10.9151
▁Tal	-10.9152
IN	-10.9153
▁2.	-10.9155
Herzégovine	-10.9156
hou	-10.9158
▁degré	-10.9159
▁stratégique	-10.916
Rhône	-10.916
CA	-10.9161
_1	-10.9168
alcool	-10.9168
▁symbolique	-10.9173
emp	-10.9174
Garonne	-10.9174
▁appareils	-10.9177
▁remplaçant	-10.9179
▁Louise	-10.918
▁assuré	-10.9182
▁Vie	-10.9183
nne	-10.919
▁décida	-10.9194
▁satellite	-10.9195
▁supplémentaire	-10.9197
▁Ceux	-10.9198
▁branches	-10.9198
▁disputé	-10.92
▁suicide	-10.9202
san	-10.9205
▁1901	-10.9206
▁retenu	-10.9207
gr	-10.9208
▁Lac	-10.9209
▁illustre	-10.9211
▁paysans	-10.9211
▁précision	-10.9213
▁décoration	-10.9213
▁voile	-10.9215
▁Loi	-10.9216
▁Blanc	-10.9216
▁metal	-10.9217
adaptation	-10.9217
▁viol	-10.9218
▁attribue	-10.922
▁sols	-10.9221
▁considérés	-10.9221
Argentine	-10.9224
établir	-10.9226
avaient	-10.923
cale	-10.9232
▁Prusse	-10.9236
▁1860	-10.9238
var	-10.9239
▁120	-10.9239
▁acquiert	-10.9239
▁Sor	-10.9242
ox	-10.9246
inc	-10.9247
guer	-10.9248
Du	-10.9248
▁Roland	-10.9252
▁juridiction	-10.9256
interdiction	-10.9261
▁payer	-10.9264
▁suffisamment	-10.9264
▁Reims	-10.9264
▁modifications	-10.9266
▁apporte	-10.9267
▁partout	-10.9268
▁Champ	-10.9269
col	-10.9272
tho	-10.9272
ona	-10.9276
▁noble	-10.9278
84	-10.9279
▁équipé	-10.9282
93	-10.9283
ifier	-10.9285
▁motifs	-10.929
▁divisions	-10.9294
▁Sel	-10.9294
▁aspects	-10.9296
▁représentée	-10.9296
▁établir	-10.9298
humanité	-10.9298
▁Ten	-10.9304
zen	-10.9308
gli	-10.9311
▁arrivent	-10.9311
▁commissaire	-10.9312
garde	-10.9313
Claude	-10.9314
▁prieuré	-10.9315
▁clairement	-10.9317
▁renommé	-10.9318
▁évêques	-10.932
▁Pascal	-10.9323
▁Adam	-10.9335
mort	-10.9335
▁Luis	-10.9337
▁déménage	-10.9339
▁1890	-10.9341
hal	-10.9345
▁[[	-10.9345
▁capacités	-10.9349
▁37	-10.9349
▁bonnes	-10.9352
▁affaire	-10.9353
▁progrès	-10.9357
oma	-10.9357
▁garçon	-10.936
famille	-10.9362
pre	-10.9363
tas	-10.9365
impression	-10.9368
▁ateliers	-10.9369
▁manche	-10.9371
▁éco	-10.9371
ago	-10.9372
Calais	-10.9373
57	-10.9374
▁fosse	-10.9377
▁Gil	-10.9379
▁fini	-10.938
ennemi	-10.9381
▁avance	-10.9381
▁1924	-10.9382
▁Cent	-10.9384
▁récompense	-10.9385
▁facteur	-10.9387
▁détruite	-10.9391
uf	-10.9392
▁Miss	-10.9392
▁reconnaît	-10.9395
▁libres	-10.9396
▁Mis	-10.9398
orgue	-10.9403
AT	-10.9407
▁vins	-10.9409
cept	-10.941
▁Sc	-10.9413
▁camps	-10.9415
▁Christophe	-10.9416
▁Will	-10.9417
ppe	-10.942
iri	-10.9421
▁virus	-10.9423
ico	-10.9424
▁chaînes	-10.9428
▁évolution	-10.943
▁Sept	-10.9434
ua	-10.9436
▁allait	-10.9439
▁Boy	-10.9441
PA	-10.9442
▁chien	-10.9442
▁charte	-10.9443
▁Bruno	-10.9444
iff	-10.9444
▁Kor	-10.9449
▁matches	-10.9449
issi	-10.945
▁Young	-10.9451
▁retiré	-10.9452
▁figurent	-10.9452
tim	-10.9453
▁Algérie	-10.9455
▁sombre	-10.9459
▁décoré	-10.9459
illi	-10.9461
▁Zi	-10.9462
▁quai	-10.9465
▁communistes	-10.9466
▁égale	-10.9476
ouv	-10.9476
▁ton	-10.9478
▁perdre	-10.9479
▁règlement	-10.9482
▁Kal	-10.9484
▁1914	-10.9485
▁électorale	-10.9485
▁incluant	-10.9485
▁usine	-10.9487
▁bâti	-10.9487
unique	-10.9488
dale	-10.9489
▁fidèles	-10.949
▁Kan	-10.9494
▁1848	-10.9496
ić	-10.9496
rem	-10.9496
▁destinés	-10.9497
▁1986,	-10.9497
▁personnelle	-10.9497
▁tribu	-10.9497
▁sé	-10.9498
▁remet	-10.9498
▁cités	-10.95
▁hongrois	-10.9501
▁passa	-10.9502
▁athlète	-10.9502
▁Bavière	-10.9505
▁Carr	-10.9507
▁can	-10.9508
gol	-10.9512
▁réfugiés	-10.9512
▁périodes	-10.9514
aspect	-10.9515
instar	-10.9521
▁étoile	-10.9521
▁Eric	-10.9524
nat	-10.9525
▁obligé	-10.9527
▁publicité	-10.9528
pli	-10.9529
▁outils	-10.9529
ède	-10.9531
tsu	-10.9532
▁utilisation	-10.9535
▁démocrate	-10.9536
of	-10.9538
▁fortes	-10.954
▁remarquer	-10.954
▁1958	-10.9541
▁Mari	-10.9541
▁1932	-10.9547
amélioration	-10.9548
▁cru	-10.9548
▁Award	-10.9549
▁reproduction	-10.9549
▁démissionne	-10.955
▁majoritaire	-10.9551
▁pauvres	-10.9552
53	-10.9552
▁voyages	-10.9554
hommes	-10.9554
▁pétrole	-10.9555
▁39	-10.9561
▁plage	-10.9565
▁sélections	-10.9566
ning	-10.9571
Pétersbourg	-10.9575
▁québécois	-10.958
▁applications	-10.9585
▁Corse	-10.9586
▁architecte	-10.959
▁hectares	-10.9591
▁Galles	-10.9592
▁Museum	-10.9592
osa	-10.9593
kel	-10.9594
▁Emmanuel	-10.9596
▁continu	-10.9596
▁Pou	-10.9596
▁dérive	-10.9599
espèces	-10.9601
▁associés	-10.9603
tta	-10.9604
▁autrichien	-10.9605
▁peintres	-10.9605
fon	-10.9607
▁universitaires	-10.9607
▁majoritairement	-10.9607
tom	-10.9607
▁tempête	-10.9609
▁"«	-10.961
▁ver	-10.9611
éma	-10.9612
▁réalisées	-10.9612
▁rattaché	-10.9612
▁pôle	-10.9614
audience	-10.9614
▁majeures	-10.9617
▁variable	-10.9617
▁mm	-10.9618
fiction	-10.9622
▁nation	-10.9625
▁fidèle	-10.9626
▁spectacles	-10.9627
▁normes	-10.9627
2011	-10.9634
▁conclut	-10.9634
islam	-10.9636
▁ponts	-10.964
▁Rob	-10.964
▁sépare	-10.9645
▁Ry	-10.9647
interprétation	-10.9648
▁galaxies	-10.9648
▁mauvaise	-10.9656
ège	-10.9658
▁1830	-10.9663
iller	-10.9665
▁achète	-10.9666
attaquant	-10.9667
▁sucre	-10.9669
2010	-10.967
▁1909	-10.967
▁enceinte	-10.9671
▁époux	-10.9672
▁chrétien	-10.9675
uses	-10.9675
gne	-10.9676
▁Im	-10.9678
avantage	-10.9682
▁probable	-10.9694
IP	-10.9695
pot	-10.9699
ense	-10.9702
lés	-10.9702
▁arabes	-10.9703
▁Tim	-10.9703
▁épreuve	-10.9703
▁géré	-10.9704
▁équipements	-10.9705
▁oblige	-10.9708
▁XVI	-10.971
lique	-10.971
▁Four	-10.9711
▁initial	-10.9714
athlétisme	-10.9714
▁moto	-10.9716
Alsace	-10.9718
▁notes	-10.9718
▁doctrine	-10.9718
▁grotte	-10.9719
oppose	-10.9719
52	-10.9719
cel	-10.9719
▁Rod	-10.972
Pi	-10.9721
▁Ay	-10.9722
▁breton	-10.9722
▁vague	-10.9723
▁min	-10.9724
▁flux	-10.9727
▁Nous	-10.973
▁échoue	-10.9731
Insee	-10.9731
▁schéma	-10.9737
▁Ayant	-10.9737
▁Cra	-10.9744
hop	-10.9745
▁Mouvement	-10.9746
▁marchandises	-10.9746
▁fou	-10.9749
▁Navy	-10.9752
▁panneaux	-10.9755
▁paysages	-10.9756
û	-10.9757
▁phrase	-10.9758
▁Cher	-10.976
▁déchets	-10.9762
inspire	-10.9768
▁diversité	-10.9771
▁Virginie	-10.9771
▁Camp	-10.9773
▁municipale	-10.9774
▁résulte	-10.9775
▁Ford	-10.9776
▁Cat	-10.9777
▁rois	-10.9781
_3	-10.9781
▁privés	-10.9783
adresse	-10.9783
▁Temple	-10.9784
▁curé	-10.9787
▁remportée	-10.9788
▁Friedrich	-10.9789
assaut	-10.9789
▁Ron	-10.9793
▁médecins	-10.9795
ii	-10.9795
▁manifestation	-10.9795
hor	-10.9797
▁Brun	-10.9799
▁mariée	-10.9801
▁égal	-10.9804
▁jugement	-10.9804
▁monter	-10.9805
SI	-10.9809
▁ressort	-10.9811
▁révélé	-10.9812
ull	-10.9812
▁Romains	-10.9814
▁lire	-10.9818
wer	-10.9823
▁expériences	-10.9828
▁provenance	-10.9828
▁Que	-10.9829
▁automatique	-10.9831
▁rénovation	-10.9833
▁touristique	-10.9833
▁regroupant	-10.9837
92	-10.9838
▁fêtes	-10.9842
▁consul	-10.9843
▁Win	-10.9844
Antiquité	-10.9846
▁vertu	-10.9848
▁Mes	-10.9852
archevêque	-10.9853
cot	-10.9856
▁difficiles	-10.9856
impulsion	-10.9864
▁endroits	-10.9866
lette	-10.9867
▁Ernest	-10.987
lor	-10.9871
▁profite	-10.9871
éviter	-10.9873
▁rec	-10.9874
▁House	-10.9876
▁PC	-10.9876
▁studios	-10.9877
▁moulin	-10.9877
▁maîtres	-10.9878
▁choisir	-10.9879
▁conclu	-10.9879
CC	-10.9879
Ne	-10.988
ç	-10.988
ë	-10.9881
▁réflexion	-10.9882
▁publier	-10.9884
▁inconnue	-10.9884
Ri	-10.9886
iné	-10.9886
▁poisson	-10.989
▁Bull	-10.989
▁possibles	-10.9893
▁tension	-10.9899
▁Émile	-10.9899
▁dizaines	-10.9901
▁1963	-10.9904
▁prête	-10.9907
lage	-10.9908
▁significative	-10.9908
▁foule	-10.9908
▁refuge	-10.9908
▁échelle	-10.9909
▁64	-10.9919
çon	-10.9924
▁découvertes	-10.9927
▁1961	-10.9927
▁Em	-10.9928
illard	-10.9931
▁séance	-10.9932
▁coureurs	-10.9934
▁Lang	-10.9936
▁réelle	-10.9938
ige	-10.9939
embouchure	-10.994
▁Conservatoire	-10.994
▁Group	-10.9941
▁modifié	-10.9941
▁Sans	-10.9942
▁volant	-10.9942
▁commencer	-10.9943
nk	-10.9946
▁tiré	-10.9947
▁Charlotte	-10.9948
écurie	-10.9949
▁venus	-10.9953
▁ordonne	-10.9953
▁préparer	-10.9954
▁partenaire	-10.9954
ote	-10.9955
▁baptisé	-10.9957
▁"".	-10.9958
▁dépit	-10.9958
▁inconnu	-10.9965
▁internet	-10.9967
nor	-10.9971
▁renforcer	-10.9974
▁Jim	-10.9976
Hôtel	-10.9977
SP	-10.9977
▁répertoire	-10.998
chon	-10.9981
▁morale	-10.9981
▁collective	-10.9983
▁producteurs	-10.9991
▁générales	-10.9992
Fa	-10.9996
▁marbre	-11
▁électriques	-11.0001
▁Vel	-11.0001
▁fixé	-11.0005
▁dessinateur	-11.0008
cour	-11.0012
omb	-11.0012
▁k	-11.0015
▁vraiment	-11.0015
▁exceptionnelle	-11.0017
avocat	-11.0017
▁incendie	-11.0018
▁Bureau	-11.0025
roi	-11.0025
▁Ministère	-11.0025
▁Petite	-11.0026
▁magasin	-11.0027
▁charges	-11.0029
▁Brian	-11.0029
allemand	-11.003
▁popularité	-11.0034
▁présentes	-11.0039
▁Cuba	-11.0039
▁Mali	-11.004
▁littéraires	-11.0042
▁1984,	-11.0042
▁chiffres	-11.0045
▁Boul	-11.0046
gent	-11.0046
enceinte	-11.0047
▁Az	-11.0048
▁historien	-11.0051
▁Berg	-11.0055
▁descendants	-11.0057
▁téléphone	-11.0057
ito	-11.0057
▁extérieur	-11.0063
table	-11.0066
aut	-11.0069
▁technologies	-11.007
pit	-11.0071
▁fermée	-11.0071
▁Mos	-11.0073
▁combattre	-11.0075
aka	-11.0076
▁mou	-11.0079
fé	-11.008
▁vedette	-11.008
▁thermique	-11.008
▁quelle	-11.0084
▁tourner	-11.0085
▁Brest	-11.0087
▁minute	-11.0087
cinq	-11.0087
intermédiaire	-11.0089
▁informatique	-11.0093
clo	-11.0093
nc	-11.0095
▁statistiques	-11.0097
▁financiers	-11.0097
▁travaillant	-11.0102
▁1985,	-11.0102
nait	-11.0106
▁Ven	-11.0106
▁Gé	-11.0109
▁1920,	-11.0111
▁fi	-11.0112
▁op	-11.0112
▁Bach	-11.0113
▁Gilbert	-11.0117
▁Real	-11.0118
▁restaurant	-11.012
▁[...]	-11.0121
cité	-11.0123
▁atelier	-11.0125
▁circulaire	-11.0127
▁1916	-11.0128
▁aranéomorphes	-11.013
▁histoires	-11.013
▁voulu	-11.0131
▁synthèse	-11.0139
atif	-11.0141
▁habituellement	-11.0142
anda	-11.0143
arch	-11.0144
serv	-11.0145
bb	-11.0147
▁South	-11.0147
▁couvert	-11.0149
ars	-11.015
armement	-11.0152
▁portraits	-11.0152
▁vendre	-11.0153
▁métrage	-11.0154
▁ob	-11.0156
side	-11.0157
2008	-11.0159
aw	-11.016
▁électeurs	-11.0161
notamment	-11.0167
amitié	-11.0167
▁battre	-11.0168
▁différences	-11.017
San	-11.017
▁étrangère	-11.0175
▁observant	-11.0176
fre	-11.0177
▁productions	-11.0177
▁chante	-11.0178
▁étudiant	-11.0179
ouvre	-11.0179
▁téléfilm	-11.018
▁Bl	-11.0182
▁syndicat	-11.0184
ajout	-11.0185
▁1960.	-11.019
Cor	-11.0191
gio	-11.0192
▁quotidienne	-11.0192
▁55	-11.0194
Opéra	-11.0194
▁Davis	-11.0194
▁Saxe	-11.0194
▁noyau	-11.0196
ives	-11.0198
▁achevé	-11.0198
▁descente	-11.0199
▁tribus	-11.0205
▁Général	-11.0208
Intérieur	-11.0212
▁1956	-11.0214
impact	-11.0216
▁Étienne	-11.0218
▁mobile	-11.0219
▁brun	-11.0221
▁colons	-11.0222
▁Sau	-11.0222
▁procureur	-11.0224
▁supérieures	-11.0224
▁complexes	-11.0225
▁1987,	-11.0226
▁samedi	-11.0226
▁béton	-11.0228
fond	-11.0231
▁peur	-11.0231
▁fur	-11.0233
▁Bibliothèque	-11.0234
▁future	-11.0237
▁Ier	-11.0238
échec	-11.0242
▁particularité	-11.0242
▁Pérou	-11.0243
endroit	-11.0244
▁1902	-11.0247
▁accompagne	-11.0247
Su	-11.0249
ots	-11.025
▁Kon	-11.025
gues	-11.025
▁trait	-11.0251
▁sûr	-11.0256
▁four	-11.0262
▁Team	-11.0266
▁financières	-11.0266
Ga	-11.0269
far	-11.0269
▁Cinq	-11.027
▁Chez	-11.0272
▁1903	-11.0272
▁accède	-11.0272
▁boîte	-11.0275
▁Stephen	-11.0277
▁fabrique	-11.0277
▁militants	-11.0281
▁comprise	-11.0283
▁évidence	-11.0284
▁diriger	-11.0285
▁Gilles	-11.0286
▁directrice	-11.0286
▁terminer	-11.0287
▁arrivé	-11.0287
nus	-11.0287
▁contemporains	-11.0288
▁1946	-11.0294
rain	-11.0294
américain	-11.0295
▁tentatives	-11.0302
▁rencontrer	-11.0302
▁constructions	-11.0302
▁talent	-11.0303
▁top	-11.0304
▁marchés	-11.0304
▁Dis	-11.0304
▁dixième	-11.0306
étique	-11.0307
▁décennie	-11.0307
asse	-11.0309
▁mâles	-11.031
▁accepté	-11.031
▁Lan	-11.0311
ologique	-11.0311
more	-11.0313
▁exécutif	-11.0314
Ver	-11.0316
▁voûte	-11.0317
nière	-11.0319
0.	-11.0324
▁Lewis	-11.0325
institut	-11.0326
▁Championship	-11.0328
guerre	-11.033
▁actifs	-11.0336
vy	-11.0339
2015	-11.0339
▁connait	-11.034
▁nettement	-11.034
▁démocratie	-11.034
▁similaires	-11.0346
▁maternelle	-11.0347
▁organismes	-11.0349
▁52	-11.0351
▁comprenait	-11.0351
vas	-11.0352
▁aspect	-11.0353
cio	-11.0353
▁trésor	-11.0353
king	-11.0355
▁guide	-11.0357
▁venu	-11.0358
engager	-11.0361
exercice	-11.0361
▁programmation	-11.0365
▁adversaires	-11.037
▁baroque	-11.037
œil	-11.0371
▁tirer	-11.0372
Alexandre	-11.0372
capitale	-11.0377
▁considérable	-11.0382
bie	-11.0383
▁souvenir	-11.0384
▁navigation	-11.0384
▁accusé	-11.0385
matique	-11.0387
▁norme	-11.0388
avis	-11.039
▁Alexander	-11.0395
2012	-11.0395
hypothèse	-11.0396
rons	-11.0396
étape	-11.0397
▁prêtres	-11.0401
▁Hou	-11.0402
▁touché	-11.0406
▁archéologiques	-11.0407
▁mine	-11.0407
▁Research	-11.0407
▁dresse	-11.0409
▁culturels	-11.0409
sia	-11.041
3.	-11.041
▁VIII	-11.0411
habit	-11.0412
▁partielle	-11.0416
▁Diego	-11.0418
▁SS	-11.042
fér	-11.0421
issent	-11.0425
▁finances	-11.0427
▁Blue	-11.0428
▁Pop	-11.0428
uve	-11.0431
▁refusé	-11.0433
occupe	-11.0435
hon	-11.0437
▁quarts	-11.0438
▁Vé	-11.0438
▁récupérer	-11.0445
dre	-11.0446
▁Ant	-11.0447
▁détruire	-11.045
tti	-11.0452
▁Ran	-11.0452
▁pratiquement	-11.0453
▁bri	-11.0453
▁Benjamin	-11.0454
▁proposer	-11.0456
▁Kou	-11.0456
Cha	-11.0457
▁restera	-11.0458
▁numéros	-11.0459
▁galaxie	-11.046
▁linguistique	-11.0462
inger	-11.0463
ject	-11.0467
▁indépendants	-11.0468
83	-11.0469
▁Clo	-11.0469
▁débuté	-11.0473
2006	-11.0475
▁Wide	-11.0475
▁fontaine	-11.0478
▁She	-11.0479
mor	-11.0483
SD	-11.0484
▁aire	-11.0484
▁tenté	-11.0484
▁prisonnier	-11.0486
▁Cau	-11.0486
▁remportent	-11.0489
▁traditions	-11.049
▁seules	-11.0491
Iran	-11.0492
▁1959	-11.0492
▁1944	-11.0493
▁Ball	-11.0495
augmentation	-11.0496
51	-11.0497
▁consacrer	-11.0498
▁Docteur	-11.0499
att	-11.05
2007	-11.0501
▁Fri	-11.0504
▁navale	-11.0506
▁comprennent	-11.0507
Arc	-11.0508
▁Monaco	-11.0512
neuf	-11.0513
zar	-11.0513
2013	-11.0518
pul	-11.0519
▁rassemble	-11.0519
illo	-11.0521
▁rayon	-11.0521
▁photos	-11.0522
▁marais	-11.0522
issement	-11.0528
▁Tours	-11.053
▁éliminatoires	-11.0532
▁distinguer	-11.0532
équation	-11.0534
▁43	-11.0535
▁union	-11.0537
alisme	-11.0538
▁resta	-11.054
▁x	-11.0541
kha	-11.0543
nique	-11.0545
Bar	-11.0546
▁nationalité	-11.0548
▁extra	-11.0548
▁pop	-11.0549
▁mentionne	-11.055
▁gares	-11.0553
général	-11.0555
▁1918	-11.0557
▁Lausanne	-11.0559
▁robe	-11.0561
bur	-11.0561
▁commandée	-11.0561
nac	-11.0562
ode	-11.0563
▁1948	-11.0563
▁Croatie	-11.0564
▁amoureux	-11.0564
aider	-11.0566
▁beauté	-11.0567
▁marie	-11.057
▁ad	-11.0572
▁ronde	-11.0572
▁manga	-11.0572
▁littoral	-11.0573
▁chimie	-11.0574
▁do	-11.0576
IF	-11.0577
Jo	-11.0579
▁juif	-11.0581
zel	-11.0582
ij	-11.0583
▁lauréat	-11.0583
icien	-11.0584
▁Mario	-11.0585
▁Explorer	-11.0587
inventaire	-11.0588
▁chimique	-11.0588
tum	-11.0589
▁disparaît	-11.0589
▁plate	-11.0589
Ur	-11.0594
▁handball	-11.0597
nement	-11.06
▁officiels	-11.0601
▁Sydney	-11.0602
Par	-11.0602
▁Tro	-11.0603
▁idée	-11.0607
indice	-11.0609
▁patients	-11.0612
▁installés	-11.0612
▁sections	-11.0616
▁détails	-11.0616
▁clergé	-11.0616
arme	-11.0617
▁cordes	-11.0618
enfants	-11.0619
▁cents	-11.062
▁Open	-11.062
ffe	-11.0621
▁Fiat	-11.0622
lit	-11.0624
géné	-11.0624
ison	-11.0625
▁adopte	-11.0625
cq	-11.0625
▁chronique	-11.0627
▁échanges	-11.0627
▁NBA	-11.0628
▁emploi	-11.0628
▁rotation	-11.0631
82	-11.0634
MC	-11.0639
▁réserves	-11.0642
eva	-11.0642
vor	-11.0643
▁divorce	-11.0645
▁courts	-11.0645
▁irlandais	-11.0645
▁récits	-11.0647
Ab	-11.0648
▁modeste	-11.0649
RS	-11.0657
▁pianiste	-11.0659
▁générique	-11.0664
▁adversaire	-11.0664
top	-11.0666
considérablement	-11.0666
rap	-11.0666
ith	-11.0667
▁combinaison	-11.0669
▁Maître	-11.0669
▁soldat	-11.0674
▁linéaire	-11.0675
point	-11.0676
Mon	-11.0677
Em	-11.068
▁Tam	-11.068
▁longs	-11.0682
▁cellule	-11.0683
équipement	-11.0683
démocrate	-11.0684
▁Nor	-11.0686
▁47	-11.0688
hem	-11.0689
avions	-11.069
▁blessures	-11.0691
nica	-11.0695
▁seuil	-11.0696
▁arbre	-11.0699
écran	-11.07
2000	-11.0703
▁hiver	-11.0705
sal	-11.0705
▁accompli	-11.0709
Agence	-11.0711
▁Center	-11.0711
mos	-11.0712
▁issues	-11.0718
press	-11.0718
▁Harry	-11.0719
▁éponyme	-11.0722
▁Code	-11.0723
▁visibles	-11.0731
▁inscription	-11.0732
▁Porto	-11.0733
adi	-11.0734
▁SNCF	-11.0739
▁Turin	-11.074
office	-11.0744
▁1931	-11.0745
▁sexuelle	-11.0745
▁assurée	-11.0745
▁triple	-11.0746
▁Bank	-11.0746
▁terminant	-11.0747
▁apparu	-11.0747
▁Op	-11.0747
▁métropolitaine	-11.075
actualité	-11.0751
▁Journal	-11.0751
▁prêté	-11.0752
cul	-11.0754
Av	-11.0755
▁Pékin	-11.0756
▁démographique	-11.0756
▁richesse	-11.0757
sée	-11.0762
▁46	-11.0764
Hu	-11.0765
▁envisage	-11.0765
▁pot	-11.0765
2014	-11.0767
▁trio	-11.0769
▁État	-11.077
▁précédemment	-11.0771
▁Reg	-11.0774
DS	-11.0775
iya	-11.0775
▁tournois	-11.0776
▁Somme	-11.0783
▁créant	-11.0788
▁monarchie	-11.079
vienne	-11.0791
chin	-11.0791
▁phases	-11.0792
▁régionaux	-11.0792
▁archevêque	-11.0793
▁policiers	-11.0794
▁Sicile	-11.0795
raie	-11.0795
éno	-11.0797
ym	-11.0798
▁1997.	-11.0799
ettes	-11.0799
coréen	-11.0801
▁profonde	-11.0803
▁basilique	-11.0805
▁Dj	-11.0806
▁1889	-11.0807
vit	-11.0808
▁Stone	-11.081
ize	-11.081
emb	-11.0814
▁cha	-11.0817
▁dépasse	-11.0817
sel	-11.0817
▁réellement	-11.0818
ür	-11.0818
▁comparaison	-11.082
▁Lé	-11.082
lib	-11.0822
cra	-11.0823
▁profondément	-11.0824
zio	-11.0825
igu	-11.0826
▁descend	-11.0829
▁inaugurée	-11.083
▁Mill	-11.0833
for	-11.0833
▁Bau	-11.0836
▁Beaux	-11.0837
extension	-11.0842
▁usines	-11.0846
▁alternative	-11.0847
pil	-11.0847
▁Der	-11.0849
▁amour	-11.0849
▁participant	-11.0851
▁fr	-11.0857
▁états	-11.0857
▁Mol	-11.0858
▁tronçon	-11.0859
Grand	-11.0866
▁édifice	-11.0866
▁1982,	-11.0867
▁implique	-11.0868
▁construites	-11.0869
▁froide	-11.087
▁tests	-11.0875
▁sentiment	-11.0877
▁hauts	-11.0878
▁volontaires	-11.088
▁passée	-11.0882
main	-11.0883
ert	-11.0884
To	-11.0885
▁alentours	-11.0885
▁Yves	-11.0888
▁1983,	-11.0889
▁privées	-11.0889
▁mineurs	-11.0892
▁golfe	-11.0893
enfance	-11.0894
▁impérial	-11.0894
▁Chan	-11.0897
itz	-11.0898
▁bleue	-11.0899
▁autrichienne	-11.0901
ore	-11.0901
part	-11.0902
édit	-11.0906
▁1790	-11.0907
▁1898	-11.0908
house	-11.091
▁initiale	-11.0911
▁inspirée	-11.0911
IT	-11.0917
▁précédents	-11.0917
aurait	-11.0917
lla	-11.0917
▁culturelles	-11.0918
▁vraisemblable	-11.0918
▁femelles	-11.0919
▁1922	-11.0919
▁Georg	-11.0921
▁Tru	-11.0923
▁physiques	-11.0923
▁Alex	-11.0924
▁Tibet	-11.0928
▁instrument	-11.0929
etta	-11.093
▁dotée	-11.0931
▁restes	-11.0932
imi	-11.0933
▁stable	-11.0933
▁interprétée	-11.0934
uma	-11.0935
▁motif	-11.0937
▁déroulent	-11.0939
▁traversé	-11.0939
▁marchands	-11.094
▁rural	-11.094
aya	-11.094
▁Thierry	-11.0942
▁Franz	-11.0943
▁dérivé	-11.0948
▁entré	-11.0949
▁Tournoi	-11.095
▁médical	-11.0954
▁Pla	-11.0955
▁Sand	-11.0956
ifié	-11.0959
▁identité	-11.0961
Ex	-11.0962
▁Khan	-11.0962
agent	-11.0962
▁organisées	-11.0963
▁Benoît	-11.0966
▁Wilhelm	-11.0967
▁patrouille	-11.0967
▁terminée	-11.0969
Orange	-11.0971
_	-11.0972
American	-11.0977
On	-11.0977
arbre	-11.0979
métrage	-11.0979
PD	-11.0984
▁brésilien	-11.0984
▁Phil	-11.0985
▁matières	-11.0986
▁41	-11.0987
arrestation	-11.0987
▁archéologique	-11.0993
épouse	-11.0993
zz	-11.0994
▁expédition	-11.0997
▁bruit	-11.0998
TV	-11.0999
▁débats	-11.0999
▁avis	-11.1005
▁orthodoxe	-11.1006
risme	-11.1006
BA	-11.1012
▁extrait	-11.1012
abilité	-11.1013
▁amical	-11.1014
▁faites	-11.1015
▁Sciences	-11.102
coup	-11.1022
▁compatriote	-11.1022
▁Ji	-11.1022
wald	-11.1023
▁déposé	-11.1027
▁écrivains	-11.1028
TA	-11.103
▁concile	-11.1032
▁manuscrits	-11.1033
mois	-11.1033
▁compositions	-11.1034
▁rangs	-11.1034
▁léger	-11.1034
▁amateurs	-11.1035
▁tirage	-11.1035
rog	-11.1036
▁entreprend	-11.1037
▁précis	-11.1037
adoption	-11.1038
utilisateur	-11.1039
▁malade	-11.1042
▁Maine	-11.1046
Israël	-11.1046
▁zonage	-11.1047
▁Porte	-11.1051
▁définir	-11.1052
▁gra	-11.1053
char	-11.1056
▁rebelles	-11.1059
▁terminologie	-11.1062
▁statues	-11.1069
▁Sk	-11.1075
aba	-11.1076
▁progression	-11.1077
gré	-11.1078
▁1944,	-11.1079
▁assiste	-11.1079
▁attaqué	-11.1082
▁amené	-11.1082
So	-11.1082
▁1896	-11.1086
▁vaincu	-11.1091
▁1947	-11.1092
▁spécialistes	-11.1092
000	-11.1092
▁Fé	-11.1092
▁Mak	-11.1093
▁élection	-11.1093
rid	-11.1096
▁auxquels	-11.1097
▁emprisonné	-11.1099
▁arrêt	-11.1099
▁récolte	-11.11
▁Windows	-11.1102
▁Ny	-11.1102
[	-11.1103
▁germanique	-11.1106
▁traités	-11.1107
▁sauvage	-11.1109
▁marchand	-11.1112
▁commerciaux	-11.1112
▁garçons	-11.1114
▁référendum	-11.1117
▁dépression	-11.1118
stan	-11.1118
▁Bertrand	-11.1119
▁1850	-11.112
▁républicaine	-11.112
▁apparaître	-11.1122
▁suppression	-11.1122
▁arc	-11.1124
▁perdent	-11.1126
▁racines	-11.1127
Har	-11.1128
ea	-11.113
▁joint	-11.1131
▁économie	-11.1134
ogne	-11.1135
ém	-11.1139
▁couramment	-11.1143
ute	-11.1144
rê	-11.1147
épidémie	-11.1148
hydr	-11.1149
▁qualités	-11.115
ssin	-11.1152
Star	-11.1154
▁tâche	-11.1157
Amiens	-11.1157
▁balle	-11.1158
▁Wei	-11.1158
▁Ly	-11.1158
▁exige	-11.1159
▁organisés	-11.116
expansion	-11.1163
▁courants	-11.1166
▁sac	-11.1166
▁reconnaître	-11.1167
▁Ak	-11.1168
implantation	-11.1169
lac	-11.117
▁repos	-11.117
alla	-11.1171
▁SC	-11.1173
▁radical	-11.1178
assa	-11.1179
▁traits	-11.1181
ève	-11.1182
rès	-11.1186
▁crime	-11.1186
▁congrégation	-11.1188
▁1871	-11.119
affrontent	-11.1191
▁Félix	-11.1193
Field	-11.1195
▁1977,	-11.1195
▁ottoman	-11.1196
uli	-11.1198
Illinois	-11.1198
▁témoigne	-11.1199
isés	-11.1199
▁neuvième	-11.1201
▁rédigé	-11.1203
▁exposé	-11.1203
Is	-11.1205
▁décisions	-11.1207
ech	-11.1208
▁Bro	-11.1208
ust	-11.1208
▁utile	-11.1209
hol	-11.121
pas	-11.121
▁1895	-11.1213
alis	-11.1213
▁1936	-11.1214
marins	-11.1215
app	-11.1216
inscription	-11.1218
▁Ana	-11.1218
▁violon	-11.122
▁160	-11.1221
▁Hugo	-11.1222
▁module	-11.1222
▁domine	-11.1224
▁verte	-11.1225
▁Gla	-11.1229
▁christianisme	-11.1229
▁protocole	-11.1229
▁1981,	-11.123
▁manoir	-11.123
▁foyer	-11.123
▁érigé	-11.1238
▁constituer	-11.1243
nin	-11.1243
▁préside	-11.1245
▁parviennent	-11.1249
▁déb	-11.1253
▁continuent	-11.1258
▁écossais	-11.1259
mand	-11.1259
▁rédige	-11.126
MS	-11.1263
▁Aires	-11.1263
▁Toujours	-11.1265
▁polémique	-11.1265
▁couches	-11.1265
▁suspension	-11.1265
▁civilisation	-11.1267
▁adoptée	-11.1268
▁Andrew	-11.127
▁effectuer	-11.127
▁Caen	-11.1271
▁contribution	-11.1271
événement	-11.1271
ambassade	-11.1276
▁italiens	-11.1278
▁électoral	-11.1278
▁parisien	-11.128
▁épousé	-11.128
▁médicale	-11.1281
▁Constantin	-11.1282
▁espoirs	-11.1287
▁devoir	-11.1288
anne	-11.1289
▁commandes	-11.1289
▁souligne	-11.1291
▁manches	-11.1292
▁réformes	-11.1293
▁volley	-11.1295
▁Gri	-11.1295
▁1974,	-11.1297
tract	-11.1298
▁zéro	-11.1301
hab	-11.1302
▁Jun	-11.1302
otte	-11.1305
▁habite	-11.1305
▁brièvement	-11.1306
▁Dijon	-11.1306
▁gallo	-11.1309
Her	-11.131
▁anniversaire	-11.131
▁solutions	-11.1311
▁Beaucoup	-11.1311
Albert	-11.1313
▁caractérise	-11.1315
▁cardiaque	-11.1316
▁boucle	-11.1316
;/	-11.1316
Canada	-11.1319
▁pluie	-11.1324
habitants	-11.1325
▁1955	-11.1327
▁qualifier	-11.1328
▁arme	-11.1329
▁défaut	-11.133
▁Voici	-11.1332
▁Cur	-11.1332
▁appellation	-11.1333
▁massacre	-11.1336
As	-11.1339
▁jugé	-11.1339
▁registre	-11.1339
▁Flandre	-11.1339
2016	-11.134
▁servent	-11.1342
▁aidé	-11.1342
sses	-11.1344
▁sculptures	-11.1345
Charles	-11.1347
▁Day	-11.1348
▁1927	-11.135
▁Mah	-11.1353
Earth	-11.1357
assistance	-11.1358
▁Donald	-11.1358
▁1996.	-11.1359
Univers	-11.136
▁contrôler	-11.1362
▁faibles	-11.1364
▁industriels	-11.1368
▁Gand	-11.1372
▁copie	-11.1373
▁réussite	-11.1376
▁Taylor	-11.1378
▁départementales	-11.1379
9,	-11.138
marine	-11.138
▁Film	-11.1382
▁précipitations	-11.1383
▁Hen	-11.1383
bli	-11.1385
âtre	-11.1385
▁naval	-11.1385
▁optique	-11.1388
▁particuliers	-11.1389
▁quasiment	-11.139
tron	-11.1392
inverse	-11.1393
▁Philadelphie	-11.1393
▁animal	-11.1397
▁49	-11.1397
▁anonyme	-11.1399
▁Point	-11.1399
And	-11.1401
▁Aussi	-11.1408
▁Jersey	-11.1409
▁Lublin	-11.1409
▁indiqué	-11.1411
▁brésilienne	-11.1412
▁moi	-11.1413
▁Pr	-11.1413
▁variétés	-11.1415
inus	-11.1416
tag	-11.1416
▁signes	-11.1416
CP	-11.1417
▁1979,	-11.1419
accent	-11.1419
nfrared	-11.1419
èle	-11.1421
SS	-11.1421
▁modification	-11.1423
arn	-11.1424
▁logo	-11.1425
▁partenaires	-11.1429
▁précédentes	-11.1429
▁amène	-11.1433
▁plonge	-11.1435
bri	-11.1437
▁entraîné	-11.1439
▁héritier	-11.1439
▁Kara	-11.144
▁Bus	-11.1441
trois	-11.1441
▁1967,	-11.1442
ONU	-11.1444
▁investi	-11.1445
▁Hollande	-11.1445
▁Clément	-11.1446
▁inscrite	-11.1448
alisation	-11.1449
▁protestante	-11.145
▁épousa	-11.145
tés	-11.1451
▁plomb	-11.1451
▁Hamilton	-11.1454
▁botanique	-11.1456
▁1993.	-11.1456
▁venait	-11.1456
▁assisté	-11.1457
▁pistes	-11.1457
▁Wilson	-11.1458
▁pasteur	-11.1459
mark	-11.1459
▁accompagnée	-11.1459
CO	-11.146
roux	-11.146
▁menées	-11.1461
▁Ky	-11.1461
WISE	-11.1461
▁entendu	-11.1461
Arts	-11.1462
yne	-11.1465
▁1975,	-11.1465
éti	-11.1466
▁forts	-11.1468
▁Autriche	-11.147
▁client	-11.1471
▁tribune	-11.1472
▁températures	-11.1473
▁Justice	-11.1476
▁opposé	-11.1478
instant	-11.1481
▁obtint	-11.1482
▁détail	-11.1482
▁600	-11.1482
ks	-11.1484
▁identique	-11.1484
▁Pé	-11.1485
▁dénonce	-11.1488
▁augmenté	-11.149
▁Rom	-11.149
▁Nick	-11.1491
▁choc	-11.1491
▁dissolution	-11.1492
▁fans	-11.1493
chan	-11.1493
▁Ivan	-11.1496
▁combattants	-11.1501
oiseaux	-11.1502
▁Cité	-11.1504
▁Pourtant	-11.1507
▁bâton	-11.1508
▁répression	-11.1508
▁relief	-11.1509
▁éditeur	-11.1509
▁accords	-11.1509
▁65	-11.1511
▁lutter	-11.1512
▁Concours	-11.1513
uit	-11.1515
èse	-11.1516
▁chambres	-11.1519
eh	-11.152
▁ru	-11.1522
▁restée	-11.1523
▁Kam	-11.1524
▁Hitler	-11.1525
▁esclaves	-11.1527
tons	-11.1527
pl	-11.1528
Sud	-11.1529
▁1978,	-11.1531
▁recruté	-11.1534
Marc	-11.1536
Ville	-11.1538
▁Hay	-11.1538
quatre	-11.1541
avi	-11.1543
▁Costa	-11.1545
atoire	-11.1548
▁ambassadeur	-11.1548
EA	-11.1551
▁Marco	-11.1551
Ja	-11.1551
▁aventures	-11.1553
▁drame	-11.1556
RI	-11.1556
EL	-11.1559
ième	-11.1559
▁dame	-11.1563
▁faciliter	-11.1566
▁délai	-11.1566
▁monts	-11.1569
▁décerné	-11.157
▁Tou	-11.1571
▁800	-11.1573
▁Hé	-11.1574
▁1976,	-11.1575
▁peuplée	-11.1575
▁trentaine	-11.1576
▁permit	-11.1577
apprentissage	-11.1578
▁Mai	-11.1578
▁Venezuela	-11.1581
▁mourir	-11.1582
▁Jon	-11.1583
▁permettait	-11.1584
nées	-11.1585
slav	-11.1587
affiche	-11.1591
▁théorème	-11.1592
▁empêcher	-11.1593
Bu	-11.1594
▁orchestre	-11.1594
▁paroisses	-11.1594
▁Cannes	-11.1595
▁Buenos	-11.1597
dier	-11.1598
accident	-11.1599
▁Corps	-11.1599
intention	-11.1599
▁Cla	-11.1599
▁australienne	-11.1599
▁Poitiers	-11.1603
▁rivières	-11.1603
inématographique	-11.1606
▁chaire	-11.1607
isson	-11.1607
▁Hart	-11.161
▁logement	-11.1611
thi	-11.1612
▁utilisateurs	-11.1629
Esp	-11.163
▁Lor	-11.1633
▁capturé	-11.1634
▁vain	-11.1636
▁Inc	-11.1636
▁messe	-11.164
artistes	-11.164
▁placés	-11.1646
▁Vladimir	-11.1647
Georges	-11.165
▁Ul	-11.1651
Gu	-11.1652
▁commerciales	-11.1652
agi	-11.1654
▁batteur	-11.1655
num	-11.1656
thon	-11.1661
▁Dix	-11.1662
▁signer	-11.1669
ston	-11.167
Orchestre	-11.1672
▁métropole	-11.1672
▁magasins	-11.1675
▁commandé	-11.1677
indi	-11.1678
▁musulmane	-11.168
▁graphique	-11.1681
▁marques	-11.1683
▁Dun	-11.1685
ator	-11.1689
habitation	-11.1689
▁pr	-11.1689
▁daté	-11.1692
cop	-11.17
▁Fred	-11.1702
▁boule	-11.1702
▁reçoivent	-11.1704
▁Argentine	-11.1705
incendie	-11.1705
▁déroulée	-11.1706
▁plateforme	-11.1708
».	-11.1708
ick	-11.1711
▁Steven	-11.1715
rice	-11.1717
▁pé	-11.172
▁attesté	-11.1723
▁vendredi	-11.1723
ographie	-11.1724
▁ressemble	-11.1726
▁circonstances	-11.1726
Air	-11.1727
duction	-11.1727
▁1867	-11.1727
effectif	-11.1728
▁principauté	-11.173
▁cyclisme	-11.173
▁cède	-11.1731
▁abandonnée	-11.1733
▁génétique	-11.1734
▁po	-11.1737
▁transforme	-11.1745
▁capture	-11.1745
▁francophone	-11.1746
encontre	-11.1748
▁250	-11.1748
▁aval	-11.1752
▁Renault	-11.1753
ciel	-11.1753
▁hausse	-11.1754
▁Castel	-11.1756
ult	-11.1758
ör	-11.1759
▁Thor	-11.1759
▁créés	-11.1761
Aragon	-11.1763
▁rendant	-11.1766
▁ab	-11.1766
▁Bulgarie	-11.1768
phon	-11.1774
oth	-11.1774
irent	-11.1778
▁détient	-11.1779
Pas	-11.1782
Provence	-11.1786
▁Game	-11.1786
▁air	-11.1787
▁Web	-11.1788
▁produisent	-11.179
zin	-11.179
opérateur	-11.1792
▁tensions	-11.1795
▁sel	-11.1797
▁1885	-11.1798
▁nobles	-11.1798
▁apparait	-11.1801
▁traditionnels	-11.1802
▁dépendant	-11.1803
▁Franco	-11.1805
▁dispositions	-11.1808
▁Live	-11.1813
rand	-11.1816
ista	-11.1816
▁baccalauréat	-11.1816
fr	-11.1817
▁offert	-11.1817
▁salariés	-11.182
poli	-11.1828
Per	-11.183
▁chaud	-11.1832
▁améliorer	-11.1832
▁policier	-11.1833
▁gérer	-11.1838
▁Série	-11.1839
▁dossier	-11.184
▁Jane	-11.1841
▁secrète	-11.1842
▁transformée	-11.1843
▁cratère	-11.1844
▁conte	-11.1845
▁exemples	-11.1846
ieu	-11.1846
obligation	-11.185
ôme	-11.185
▁variations	-11.1851
▁Jou	-11.1852
venant	-11.1852
aye	-11.1853
IR	-11.1855
▁individuel	-11.1857
▁autorité	-11.1859
Brunswick	-11.186
▁augmenter	-11.186
▁Hambourg	-11.1862
▁décroche	-11.1862
▁conservée	-11.1863
▁Valence	-11.1864
dés	-11.1865
▁prochaine	-11.1865
mag	-11.1866
▁venue	-11.187
prononciation	-11.1871
attentat	-11.1872
▁vacances	-11.1876
rick	-11.1879
astronome	-11.1881
▁configuration	-11.1882
▁calcaire	-11.1883
attente	-11.1884
▁débarquement	-11.1886
▁Douglas	-11.1887
▁scandale	-11.1888
▁Vis	-11.189
lum	-11.1891
▁Philip	-11.1892
▁rejet	-11.1892
▁personnels	-11.1892
▁comportant	-11.1892
▁Sénégal	-11.1893
guin	-11.1894
prim	-11.1897
ovitch	-11.1897
▁collecte	-11.1898
ington	-11.1903
▁Bart	-11.1908
▁vols	-11.1909
cule	-11.191
▁Sky	-11.1911
appuie	-11.1913
▁variante	-11.1914
▁1995.	-11.1915
lio	-11.1915
▁intérieur	-11.1916
▁témoignage	-11.1917
affi	-11.1918
parole	-11.1921
région	-11.1922
▁particules	-11.1922
cens	-11.1924
▁modifiée	-11.1925
▁Dur	-11.1925
▁mosquée	-11.1925
▁fourni	-11.1925
▁firent	-11.1926
▁Cy	-11.1927
▁mythologie	-11.1931
tien	-11.1931
▁claire	-11.1932
▁SA	-11.1932
trait	-11.1934
exil	-11.1935
▁Blanche	-11.1936
▁blanches	-11.1936
▁biographie	-11.1943
niers	-11.1944
▁revues	-11.1944
▁spécialement	-11.1947
▁Américains	-11.1948
▁Champion	-11.1949
▁âgée	-11.1949
py	-11.195
2005	-11.195
▁métiers	-11.1951
▁indien	-11.1952
alphabet	-11.1952
▁typique	-11.1955
▁présidente	-11.1958
▁récente	-11.1958
▁municipalités	-11.196
▁illustré	-11.1961
habitat	-11.1961
▁Bourg	-11.1962
▁joueuse	-11.1964
sp	-11.1966
▁loge	-11.1967
Ukraine	-11.1969
▁souci	-11.197
soit	-11.1971
lig	-11.1974
▁recul	-11.1975
cri	-11.1975
RE	-11.1976
▁Toulon	-11.1976
Te	-11.1977
▁51	-11.1977
▁moine	-11.1978
▁suggère	-11.1981
ctor	-11.1982
avère	-11.1983
glo	-11.1985
▁coupable	-11.1988
▁remettre	-11.1992
▁convoi	-11.1992
ût	-11.1993
▁biologique	-11.1996
▁Irlande	-11.1997
▁Gaston	-11.1999
▁confiée	-11.2001
▁Hauts	-11.2003
face	-11.2006
nos	-11.2006
▁diffuse	-11.2009
▁Song	-11.201
▁put	-11.2011
▁catastrophe	-11.2013
▁patronyme	-11.2013
▁générations	-11.2015
▁1899	-11.2016
▁Pedro	-11.2017
Olympique	-11.202
dine	-11.2022
berger	-11.2023
▁1908	-11.2023
▁Face	-11.2023
▁prolonge	-11.2024
▁Hot	-11.2025
▁graves	-11.2025
pend	-11.2026
Ac	-11.2026
mine	-11.2026
▁bordure	-11.2029
▁intense	-11.203
long	-11.203
▁1893	-11.2033
▁faune	-11.2034
Ét	-11.2035
▁conçue	-11.2035
▁erreur	-11.2036
ouche	-11.2036
▁modes	-11.204
tait	-11.2042
▁définitive	-11.2042
▁Gustave	-11.2042
▁partagé	-11.2042
quer	-11.2045
▁parfaitement	-11.2045
▁musées	-11.2045
horloge	-11.2046
▁Elizabeth	-11.2049
PR	-11.2049
rag	-11.2049
aliste	-11.205
▁reconstruit	-11.205
▁1897	-11.2052
▁permanent	-11.2058
ía	-11.206
▁retenue	-11.2062
outre	-11.2063
UE	-11.2065
toire	-11.2067
2017	-11.207
▁originaires	-11.2072
▁considèrent	-11.2074
▁notables	-11.2075
▁Bible	-11.2077
igné	-11.2077
▁hebdomadaire	-11.2078
▁dieux	-11.2083
▁entretien	-11.2084
▁eurent	-11.2085
▁London	-11.2086
EN	-11.2086
▁Lot	-11.2088
▁militant	-11.2091
épaisseur	-11.2096
gis	-11.2097
▁Jar	-11.2098
avril	-11.2099
film	-11.2101
▁Rosa	-11.2102
▁Champagne	-11.2102
mier	-11.2103
Anjou	-11.2104
▁Confédération	-11.2107
▁vicomte	-11.2113
▁1951	-11.2117
▁aérien	-11.2118
équilibre	-11.212
▁oppose	-11.2125
▁Lin	-11.2125
▁1992.	-11.2125
yu	-11.2126
dio	-11.2127
▁campus	-11.2127
▁entend	-11.2127
▁artistiques	-11.2128
▁Ass	-11.213
▁singles	-11.213
ADN	-11.2133
von	-11.2133
▁Non	-11.2134
▁Françoise	-11.2135
▁colonisation	-11.2135
▁tue	-11.2136
▁pourra	-11.2137
▁cite	-11.2137
▁Catalogne	-11.214
▁mathématicien	-11.214
▁désignation	-11.2141
essai	-11.2142
▁dép	-11.2145
Do	-11.2147
pole	-11.2148
▁bons	-11.2151
Arizona	-11.2152
▁culminant	-11.2153
▁habitant	-11.2153
évi	-11.2153
▁1969,	-11.2154
▁kg	-11.2154
▁paiement	-11.2154
▁Saison	-11.2155
uré	-11.2155
asso	-11.2158
ssa	-11.2158
▁fenêtre	-11.2158
ingen	-11.2159
uer	-11.2159
▁ballon	-11.216
red	-11.2161
▁Shin	-11.2161
Br	-11.2164
ains	-11.2165
▁Wu	-11.2167
vil	-11.2168
ats	-11.2169
aj	-11.2174
Bou	-11.2179
▁exploité	-11.218
rue	-11.218
▁comptes	-11.218
lock	-11.2182
▁BBC	-11.2183
▁protégé	-11.2186
Bi	-11.2187
▁préfère	-11.2187
▁concurrent	-11.2187
▁soviétiques	-11.2187
nn	-11.2189
▁Walt	-11.2189
▁Département	-11.2196
▁Gouvernement	-11.2196
▁énergétique	-11.2196
▁Av	-11.2199
ario	-11.22
▁interprétation	-11.2204
▁Manchester	-11.2208
▁accorde	-11.2209
▁Met	-11.2209
autorisation	-11.221
▁don	-11.221
▁Puy	-11.2211
▁dominant	-11.2211
▁Leurs	-11.2211
FA	-11.2212
itt	-11.2213
▁lacs	-11.2215
▁posée	-11.2216
▁rentrer	-11.2218
▁amont	-11.2218
▁supprimé	-11.222
celle	-11.2221
▁positif	-11.2222
sto	-11.2223
oyer	-11.2225
▁Troisième	-11.2225
▁confié	-11.2225
▁phénomènes	-11.2226
▁plainte	-11.2227
ôt	-11.2232
ssé	-11.2234
Arménie	-11.2235
animal	-11.2236
▁éliminé	-11.2236
▁Réunion	-11.2237
▁turque	-11.2237
finales	-11.2241
▁volcan	-11.2242
▁désignée	-11.2242
▁Chevalier	-11.2244
▁limiter	-11.2249
▁Pau	-11.2251
nette	-11.2253
▁centrales	-11.2253
▁ajouté	-11.2255
▁dessous	-11.2256
applique	-11.2256
cie	-11.2258
DF	-11.2259
▁Fox	-11.226
▁subsiste	-11.226
▁disputer	-11.2262
Alger	-11.2262
▁créateur	-11.2262
▁dessert	-11.2262
cla	-11.2264
▁1994.	-11.2264
▁exil	-11.2269
▁soutenue	-11.2271
ED	-11.2271
▁rébellion	-11.2275
▁trou	-11.2276
aque	-11.2277
▁sec	-11.2281
▁Lee	-11.2281
▁acc	-11.2282
▁fonctionnaires	-11.2283
▁choisie	-11.2284
position	-11.2286
▁apostolique	-11.2287
▁résoudre	-11.2287
▁Times	-11.2288
ules	-11.229
blo	-11.2292
▁datée	-11.2293
▁rivalité	-11.2295
▁PS	-11.2295
ias	-11.2296
étage	-11.2296
▁propositions	-11.2297
▁vigne	-11.2297
▁synagogue	-11.2298
▁tentent	-11.23
▁entourée	-11.2301
▁sommets	-11.2301
bois	-11.2306
gers	-11.2308
▁1971,	-11.2309
▁One	-11.231
▁Thé	-11.2311
boy	-11.2312
▁1840	-11.2313
Ad	-11.2315
▁danois	-11.2316
▁1919	-11.2318
▁extérieure	-11.2318
▁aires	-11.232
▁Tunis	-11.232
ović	-11.2322
▁1881	-11.2323
émi	-11.2324
▁rival	-11.2324
dent	-11.2325
▁Francesco	-11.2325
Ou	-11.2326
▁Philippines	-11.2327
▁favoriser	-11.2327
mur	-11.233
▁grandit	-11.233
Pe	-11.233
▁notable	-11.2331
▁plaques	-11.2332
pproximativement	-11.2334
▁poursuivi	-11.2334
gua	-11.2334
ime	-11.2336
institution	-11.2339
▁variables	-11.2339
▁collines	-11.2341
▁Jam	-11.2346
série	-11.2348
▁logiciels	-11.2349
onnais	-11.235
▁équivalent	-11.2352
août	-11.2353
isent	-11.2355
▁théories	-11.2356
▁dommages	-11.2358
▁roues	-11.236
="	-11.236
ew	-11.2361
▁trajet	-11.2361
▁finaliste	-11.2361
bet	-11.2361
FI	-11.2362
▁recense	-11.2365
Ontario	-11.2365
▁évènements	-11.2365
▁protéines	-11.2367
▁semblable	-11.2368
nation	-11.2372
▁It	-11.2376
▁dames	-11.2376
▁suis	-11.2378
▁Liban	-11.2378
▁patient	-11.2378
▁Ac	-11.2379
▁Pakistan	-11.2383
individu	-11.2387
▁professeurs	-11.2387
ache	-11.239
▁tournées	-11.2394
▁fonder	-11.2394
▁mécanisme	-11.2395
iva	-11.2398
▁témoin	-11.2401
▁Zurich	-11.2401
▁Free	-11.2403
▁prononcé	-11.2404
tran	-11.2409
▁élevés	-11.2409
▁Charente	-11.2409
oko	-11.2409
mara	-11.2412
phy	-11.2415
idi	-11.2417
▁accordé	-11.2417
▁magnétique	-11.2419
soci	-11.242
▁buteur	-11.242
CR	-11.2422
pur	-11.2423
▁cache	-11.2428
▁Jérôme	-11.2429
▁Dam	-11.2429
posé	-11.243
Sal	-11.2431
cross	-11.2432
▁conduire	-11.2435
▁révision	-11.2436
▁byzantin	-11.2438
attache	-11.2439
tam	-11.2441
▁routier	-11.2442
back	-11.2444
▁relégué	-11.2444
atteindre	-11.2444
▁impliqué	-11.2445
▁travaillent	-11.2446
hib	-11.2446
archi	-11.2447
odo	-11.2447
▁Pra	-11.2449
itaire	-11.2451
ame	-11.2451
▁1943	-11.2454
over	-11.2455
▁dénommé	-11.2456
▁grille	-11.2456
▁1991.	-11.2457
▁Pot	-11.2457
impôt	-11.246
hom	-11.2461
▁Union	-11.2463
lip	-11.2463
▁dégâts	-11.2464
SO	-11.2464
▁handicap	-11.2469
▁ceci	-11.2471
terie	-11.2472
lent	-11.2473
▁armé	-11.2473
aku	-11.2473
▁réservé	-11.2475
▁existait	-11.2476
▁prépare	-11.2477
▁engagement	-11.248
▁guère	-11.2482
PC	-11.2484
▁majeurs	-11.2485
▁Résistance	-11.2487
▁comptant	-11.2488
▁Institute	-11.2488
▁modifier	-11.2488
emporte	-11.249
▁fréquent	-11.2491
▁IX	-11.2491
▁Por	-11.2493
efficacité	-11.2493
▁design	-11.2496
Comté	-11.25
harmonie	-11.2506
▁revers	-11.2507
▁tomber	-11.2508
had	-11.2508
▁considérer	-11.251
▁chimiques	-11.2513
CD	-11.2515
▁envoyés	-11.2516
▁Japonais	-11.2516
▁constituant	-11.252
▁réputé	-11.252
cord	-11.252
▁Livre	-11.2522
▁communautaire	-11.2524
ON	-11.2525
▁1000	-11.2525
▁parole	-11.2528
▁McC	-11.253
▁neuro	-11.2531
▁Lake	-11.2532
nz	-11.2534
▁54	-11.2535
▁collectivités	-11.2537
sco	-11.2539
▁tactique	-11.2539
▁rempli	-11.2542
_4	-11.2542
▁paroissiale	-11.2543
▁attiré	-11.2545
▁socialistes	-11.2546
▁Johannes	-11.2546
▁1929	-11.2547
▁alimentaire	-11.2548
▁preuves	-11.2549
ît	-11.2553
▁Quint	-11.2556
▁1892	-11.2558
▁53	-11.256
▁calme	-11.2562
▁paraître	-11.2562
▁Ministre	-11.2562
écrire	-11.2565
▁Court	-11.2567
▁diplomate	-11.2568
AA	-11.2569
▁Ash	-11.257
▁Sho	-11.2571
▁mineur	-11.2572
organiser	-11.2572
▁Nan	-11.2573
▁équipée	-11.258
EM	-11.2581
▁séquence	-11.2589
▁individu	-11.2589
octobre	-11.2591
groupe	-11.2591
▁démon	-11.2592
▁Empire	-11.2593
lov	-11.2596
▁signification	-11.2597
▁textile	-11.2597
leur	-11.2597
▁fonctionne	-11.26
▁anciennement	-11.2602
▁délégué	-11.2603
▁prononce	-11.2603
▁anime	-11.2605
ifs	-11.2605
▁remarquables	-11.2606
tig	-11.2609
mètre	-11.2612
▁princes	-11.2614
▁Wild	-11.2614
▁consécutive	-11.2614
▁causé	-11.2616
star	-11.2618
▁muni	-11.2622
▁humides	-11.2622
▁fossiles	-11.2625
lade	-11.2625
ération	-11.2626
▁coloniale	-11.2627
▁High	-11.263
▁Yougoslavie	-11.2631
▁corruption	-11.2632
Ohio	-11.2632
▁pèlerinage	-11.2633
▁menant	-11.2634
▁psychologie	-11.2639
▁marge	-11.264
▁Hel	-11.2641
▁disposent	-11.2642
▁transformer	-11.2642
▁Augustin	-11.2642
▁aussitôt	-11.2644
▁passages	-11.2645
▁stockage	-11.2646
▁emplacement	-11.2646
Can	-11.2647
▁transférée	-11.2648
▁TF	-11.2653
▁matériau	-11.2654
▁Jay	-11.2654
▁recettes	-11.2656
▁négative	-11.2656
▁Johnny	-11.2656
▁Zu	-11.2656
▁Ang	-11.2659
Amb	-11.2659
▁proportion	-11.2665
ook	-11.2666
▁incarne	-11.2667
èze	-11.2667
▁Léopold	-11.2667
▁constellation	-11.2668
entoure	-11.2669
illage	-11.2669
rina	-11.2673
▁coin	-11.2673
▁Vit	-11.2673
▁Socorro	-11.2674
▁œufs	-11.2676
▁Sophie	-11.2679
▁qualifications	-11.2679
▁rayonnement	-11.268
▁Viêt	-11.268
▁proprement	-11.2685
▁gagnant	-11.2686
▁listes	-11.2688
▁géant	-11.2688
PP	-11.2689
▁divise	-11.2691
▁recueilli	-11.2691
▁dialogue	-11.2691
▁Gaulle	-11.2691
▁Mr	-11.2692
extraction	-11.2694
▁districts	-11.2694
LINEAR	-11.2697
▁Hei	-11.2698
rine	-11.2702
day	-11.2703
▁algérien	-11.2704
▁fameux	-11.2709
AB	-11.271
▁croit	-11.2712
▁rapides	-11.2713
montre	-11.2715
lect	-11.2716
▁publiées	-11.2717
▁suspendu	-11.2719
▁exclu	-11.272
▁prototype	-11.2721
▁converti	-11.2722
▁destinées	-11.2723
▁1886	-11.2724
rité	-11.2725
▁collègues	-11.2726
▁poétique	-11.2727
▁aime	-11.2727
▁British	-11.2729
gine	-11.2729
▁provoqué	-11.273
▁fusionné	-11.2732
dri	-11.2733
▁étendue	-11.2733
▁descendant	-11.2733
▁invités	-11.2735
exploration	-11.2736
▁Road	-11.2737
▁acquise	-11.2737
▁ports	-11.2738
ffer	-11.2738
gri	-11.2739
▁sportifs	-11.2739
▁autorisé	-11.2742
▁ju	-11.2745
▁option	-11.2748
▁coupé	-11.2749
▁vaisseaux	-11.2755
sans	-11.2759
▁partition	-11.2761
▁Ann	-11.2763
▁francophones	-11.2763
▁puissante	-11.2765
échapper	-11.2767
▁signée	-11.2767
▁recouvert	-11.2772
▁Bonne	-11.2774
▁esprit	-11.2775
▁radar	-11.2775
▁remonter	-11.2778
▁faisaient	-11.2781
▁nommés	-11.2782
▁chêne	-11.2787
▁Manche	-11.2788
neau	-11.279
Pologne	-11.279
▁Ty	-11.279
▁vues	-11.2791
▁appelées	-11.2792
▁chargés	-11.2792
dant	-11.2794
▁American	-11.2795
offensive	-11.2796
▁1906	-11.2796
▁continentale	-11.2796
grad	-11.2797
éné	-11.2798
▁Cambridge	-11.2798
mais	-11.2799
▁coûts	-11.2799
▁statistique	-11.2799
▁Sarah	-11.28
▁carburant	-11.2805
▁mineures	-11.2807
mul	-11.2807
▁larges	-11.2808
▁blocs	-11.2809
rey	-11.2809
améliorer	-11.281
▁transporté	-11.2811
ód	-11.2812
bl	-11.2813
▁lourds	-11.2815
▁croire	-11.2816
▁tombé	-11.2817
▁achevée	-11.2822
▁conversion	-11.2823
▁édifices	-11.2824
▁apporté	-11.2825
égard	-11.2827
▁traiter	-11.2831
▁Isabelle	-11.2832
▁finir	-11.2834
▁convaincre	-11.2836
▁clinique	-11.2837
Th	-11.2838
▁Ferrari	-11.2846
▁Cast	-11.285
ssement	-11.285
▁communs	-11.2851
▁entra	-11.2851
AG	-11.2852
▁abattu	-11.2852
ulation	-11.2853
▁coque	-11.2853
chef	-11.2854
▁bis	-11.2857
▁adaptée	-11.2858
▁Maz	-11.2861
▁Lucien	-11.2861
urier	-11.2862
▁Stéphane	-11.2862
▁forestière	-11.2864
▁Élisabeth	-11.2864
midi	-11.2865
▁traditionnelles	-11.2867
▁East	-11.2868
▁Cré	-11.287
▁cheveux	-11.287
get	-11.287
▁étroite	-11.2872
▁matrice	-11.2873
▁Gau	-11.2876
▁1950.	-11.2876
thérapie	-11.2882
▁législation	-11.2882
▁rectangulaire	-11.2882
▁confusion	-11.2883
ough	-11.2886
alliance	-11.2887
▁Ir	-11.2891
chaussée	-11.2895
got	-11.2896
row	-11.2896
2004	-11.2897
▁tube	-11.2897
▁sensible	-11.2898
ili	-11.29
▁actuels	-11.2903
gard	-11.2903
logue	-11.2904
▁Kin	-11.2906
▁tome	-11.2908
▁Commune	-11.2908
▁1891	-11.2909
pens	-11.2912
Éducation	-11.2912
▁libérer	-11.2912
sing	-11.2913
▁satellites	-11.2914
▁trouvant	-11.2914
▁feux	-11.2915
▁Kas	-11.2915
▁Tré	-11.2915
▁sultan	-11.2915
▁circuits	-11.2918
▁contiennent	-11.2924
▁musicales	-11.2926
▁diplomatique	-11.2928
équivalent	-11.2929
Ni	-11.2929
▁DJ	-11.293
▁romantique	-11.2931
Ain	-11.2931
▁complot	-11.2931
▁recouvre	-11.2932
▁qualifiés	-11.2933
mment	-11.2933
▁volontaire	-11.2933
▁engagée	-11.2935
▁moral	-11.2935
▁Sébastien	-11.2938
▁1943,	-11.2939
▁Kevin	-11.2939
▁immense	-11.2939
ash	-11.2941
Ed	-11.2941
zzo	-11.2942
▁alpin	-11.2942
▁Égypte	-11.2944
IM	-11.2946
▁attribuée	-11.2948
▁blé	-11.2953
tica	-11.2955
▁Wall	-11.2957
ous	-11.2959
▁comtesse	-11.2961
▁ben	-11.2963
▁Wolf	-11.2964
▁oriental	-11.2964
▁Pennsylvanie	-11.2966
AI	-11.2969
4.	-11.2969
▁observe	-11.297
▁exactement	-11.2971
"&	-11.2972
dam	-11.2972
dic	-11.2972
▁législature	-11.2972
▁56	-11.2976
appa	-11.2977
%	-11.2978
tton	-11.2981
yama	-11.2981
▁publia	-11.2981
ssen	-11.2981
cos	-11.2982
▁marquer	-11.2984
▁tissu	-11.2985
vre	-11.2987
▁exprimés	-11.2987
▁syn	-11.2989
▁déplacer	-11.2989
mmer	-11.2992
▁vraie	-11.2992
▁capables	-11.2995
▁State	-11.2997
▁Rey	-11.3
▁fromage	-11.3
▁XI	-11.3
▁apprécié	-11.3002
▁sauvé	-11.3004
▁norvégien	-11.3005
awa	-11.3006
ador	-11.3007
▁compétence	-11.3008
▁géo	-11.3009
▁causes	-11.3015
2018	-11.3016
▁influent	-11.3017
▁1878	-11.3017
▁1876	-11.3017
▁universel	-11.3018
▁avenue	-11.302
▁redécoupage	-11.3021
stat	-11.3022
▁frein	-11.3026
bol	-11.3027
▁belles	-11.3027
▁fantastique	-11.3027
▁hiérarchie	-11.3027
lim	-11.3033
▁compagnon	-11.3033
arrêter	-11.3033
insurrection	-11.3033
▁cerveau	-11.3034
cée	-11.3036
▁étendu	-11.3036
▁protégée	-11.3039
ej	-11.3042
▁Carlo	-11.3043
▁pauvreté	-11.3047
▁Bern	-11.3049
▁1958,	-11.3049
▁exploitée	-11.3052
▁dangereux	-11.3053
▁constate	-11.3053
chel	-11.3054
▁observé	-11.3055
▁Bonaparte	-11.3058
▁Mohamed	-11.3058
▁réservoir	-11.3058
▁General	-11.3059
▁parcs	-11.3061
Fi	-11.3062
▁1875	-11.3063
reux	-11.3073
▁marqués	-11.3076
▁brevet	-11.3076
▁Pass	-11.3078
▁globale	-11.308
terre	-11.3082
▁ouvrier	-11.3084
▁Auvergne	-11.3085
▁Faso	-11.3086
▁serment	-11.3087
▁démonstration	-11.3088
▁Alan	-11.3089
▁soin	-11.3089
▁roumain	-11.3092
▁lundi	-11.3094
▁abbé	-11.3094
▁électro	-11.3097
chou	-11.3098
▁portait	-11.3098
▁Burkina	-11.3101
▁conducteur	-11.3101
Action	-11.3102
▁Kir	-11.3103
▁1956,	-11.3104
▁montrant	-11.3105
DA	-11.3106
▁transept	-11.3107
▁intermédiaire	-11.3107
▁littéralement	-11.3107
▁Bataille	-11.3108
abside	-11.311
▁Stockholm	-11.3113
▁érigée	-11.3114
▁lecteur	-11.3114
thy	-11.3117
2002	-11.3117
▁partant	-11.3119
▁géographie	-11.3119
▁spirituelle	-11.3121
▁prolongement	-11.3122
Royal	-11.3122
▁Là	-11.3122
We	-11.3124
élaboration	-11.3125
▁Indes	-11.3125
▁maintient	-11.3125
▁musicaux	-11.3126
▁arrondissement	-11.3127
▁surfaces	-11.313
▁mobilier	-11.3131
▁enseigné	-11.3132
▁ap	-11.3132
▁Camille	-11.3132
▁exécuté	-11.3133
▁fan	-11.3134
▁Bis	-11.3135
autonomie	-11.3135
LA	-11.3137
▁pollution	-11.314
Exposition	-11.3145
▁vouloir	-11.315
Ru	-11.3152
éthique	-11.3153
▁administrateur	-11.3153
OM	-11.3156
▁Show	-11.3156
illet	-11.3157
▁massive	-11.3157
eri	-11.3158
▁Vin	-11.3158
▁amoureuse	-11.3159
▁vignoble	-11.3162
▁apparitions	-11.3162
▁1815	-11.3164
cz	-11.3165
▁1894	-11.3166
officier	-11.3166
NA	-11.3167
—	-11.3168
installent	-11.3168
FR	-11.3169
▁familial	-11.317
immeuble	-11.3174
vio	-11.3174
but	-11.3176
▁attire	-11.3177
▁Madeleine	-11.3178
organ	-11.3179
▁mac	-11.3179
▁pain	-11.3181
▁Vas	-11.3182
▁spirituel	-11.3185
Ange	-11.3185
▁bu	-11.3187
▁mérite	-11.319
▁placer	-11.319
pis	-11.3192
▁malades	-11.3192
▁EP	-11.3192
▁Entertainment	-11.3193
iana	-11.3194
champ	-11.3196
cum	-11.3197
lev	-11.3198
▁fuir	-11.3198
▁défunt	-11.32
▁1965,	-11.3201
▁Dia	-11.3202
▁régulier	-11.3202
▁contes	-11.3203
ela	-11.3205
▁roches	-11.3206
▁1989.	-11.3209
▁scolaires	-11.3209
2003	-11.3211
▁Didier	-11.3213
▁Deuxième	-11.3213
▁Nar	-11.3213
nde	-11.3213
▁offensive	-11.3214
▁posé	-11.3214
▁Lune	-11.3215
▁coéquipier	-11.3216
▁Corporation	-11.3218
▁joua	-11.3218
2001	-11.3218
ates	-11.3219
▁Castille	-11.322
▁positive	-11.3223
▁Cru	-11.3224
key	-11.3224
▁propagande	-11.3224
▁plafond	-11.3224
champion	-11.3227
abat	-11.3228
fille	-11.323
▁holotype	-11.3231
▁réservée	-11.3231
▁ingénieurs	-11.3232
▁1963,	-11.3233
ashi	-11.3234
▁prière	-11.3236
▁concession	-11.3239
▁internes	-11.3239
oubli	-11.3241
intelligence	-11.3243
▁mentionnée	-11.3244
▁nucléaires	-11.3246
▁adulte	-11.3246
▁Amsterdam	-11.3247
▁méta	-11.3247
▁souterrain	-11.3247
▁68	-11.3248
▁identifié	-11.3248
▁foncé	-11.325
iche	-11.325
▁occupent	-11.325
▁écrites	-11.3252
▁naturellement	-11.3255
▁communément	-11.3255
▁Reine	-11.3256
appelait	-11.3258
achève	-11.3261
▁fortifications	-11.3264
▁méridionale	-11.3268
▁Cologne	-11.3268
▁affronte	-11.3268
▁1988.	-11.327
▁Vallée	-11.3272
▁flanc	-11.3273
try	-11.3273
Empereur	-11.3274
▁souveraineté	-11.3274
ouvrir	-11.3276
contre	-11.3277
oxy	-11.328
▁Sports	-11.3281
ép	-11.3283
incline	-11.3285
uro	-11.3287
▁aériennes	-11.3287
clé	-11.3288
▁1888	-11.3292
éo	-11.3292
▁rejoignent	-11.3293
mans	-11.3296
arabe	-11.3296
▁Place	-11.3296
riat	-11.3297
▁nulle	-11.3299
▁projection	-11.3299
Office	-11.3299
intégrer	-11.3302
▁Lady	-11.3305
près	-11.3311
▁lourd	-11.3312
▁1884	-11.3319
▁Sea	-11.332
pprovisionnement	-11.332
▁grandeur	-11.3321
ution	-11.3322
guet	-11.3323
vir	-11.3324
vard	-11.3324
▁suédoise	-11.3325
clin	-11.3325
informations	-11.3325
▁Ridge	-11.3325
▁passionné	-11.3326
▁conforme	-11.3327
▁déesse	-11.3328
▁végétation	-11.3331
▁apparue	-11.3331
phe	-11.3332
▁mensuel	-11.3332
▁Ari	-11.3335
▁Sin	-11.3336
▁profond	-11.3336
▁musiques	-11.3336
tory	-11.3337
▁réparties	-11.3339
Rhin	-11.334
▁intellectuelle	-11.3343
horizon	-11.3343
▁survécu	-11.3343
espoir	-11.3344
oxyde	-11.3347
▁Faculté	-11.3349
▁notoriété	-11.3349
▁possédant	-11.335
▁Conférence	-11.3356
uth	-11.3359
▁activement	-11.336
▁Droit	-11.3362
▁crédit	-11.3364
▁maîtresse	-11.3366
▁abrégé	-11.3367
▁rendez	-11.3367
▁suffixe	-11.3368
Aix	-11.3369
▁restauré	-11.337
▁Alphonse	-11.3371
▁remporta	-11.3372
▁dessus	-11.3372
▁Otto	-11.3373
▁Spa	-11.3379
▁ecclésiastique	-11.3381
▁localités	-11.3381
▁Kur	-11.3383
▁photographies	-11.3384
ités	-11.3385
BC	-11.3385
card	-11.3386
nord	-11.3386
▁Hell	-11.3387
▁week	-11.3387
▁Series	-11.3388
Maritime	-11.3388
▁1946,	-11.3393
sin	-11.3393
bis	-11.3393
▁émet	-11.3394
lière	-11.3394
▁57	-11.3394
▁Fall	-11.3395
▁enregistrements	-11.3401
▁continuité	-11.3401
▁voisines	-11.3402
▁datent	-11.3405
▁Macédoine	-11.3406
▁légitime	-11.3406
▁Jeune	-11.3406
hydrogène	-11.3407
ignan	-11.3408
oo	-11.341
II	-11.3411
▁puissances	-11.3412
▁Budapest	-11.3413
bien	-11.3414
anciens	-11.3416
UCI	-11.3416
cap	-11.3418
mili	-11.342
▁parlementaires	-11.3421
ein	-11.3422
▁vainqueurs	-11.3422
▁chercheur	-11.3423
Enfant	-11.3424
Bains	-11.3424
▁Belgrade	-11.3425
▁prolongation	-11.3425
▁Tel	-11.3429
ory	-11.3429
▁récentes	-11.3431
▁reprennent	-11.3432
▁veulent	-11.3432
ovi	-11.3437
▁LNH	-11.3438
chée	-11.3438
▁solde	-11.3438
▁officielles	-11.344
▁variantes	-11.3441
étoile	-11.3442
▁gère	-11.3442
▁gloire	-11.3444
▁Bos	-11.3446
▁vents	-11.3446
Open	-11.3447
urbanisme	-11.3451
nic	-11.3453
éc	-11.3454
▁Pur	-11.3457
▁expliquer	-11.3459
appartient	-11.3459
rt	-11.3459
▁Sig	-11.346
▁sphère	-11.3462
▁avancé	-11.3463
▁Mart	-11.3464
ennes	-11.3466
explique	-11.3466
éni	-11.3468
▁grosse	-11.3471
adapter	-11.3472
▁opéra	-11.3475
▁exprime	-11.3476
RT	-11.3476
moto	-11.3481
▁approuvé	-11.3482
ibilité	-11.3487
chard	-11.3487
évêché	-11.3489
Ivoire	-11.3489
▁hasard	-11.3489
▁territoriales	-11.3489
▁tiennent	-11.3489
▁crimes	-11.3491
▁témoignages	-11.3493
▁Stanley	-11.3496
▁1863	-11.3496
tia	-11.3497
Comm	-11.35
▁Fran	-11.3501
éclairage	-11.3504
leurs	-11.3504
▁America	-11.3507
▁idéal	-11.3508
▁représentés	-11.3508
▁poche	-11.351
▁irlandaise	-11.351
▁infrastructures	-11.351
▁Éditions	-11.3511
mba	-11.3511
▁organisme	-11.3512
▁piliers	-11.3513
SF	-11.3514
▁Fontaine	-11.3516
▁appris	-11.3517
▁indienne	-11.3517
▁arriver	-11.3517
▁Bab	-11.3518
▁pente	-11.352
▁confrontation	-11.3521
iale	-11.3523
ume	-11.3523
occuper	-11.3524
hof	-11.3526
▁Située	-11.3527
rov	-11.3528
▁Die	-11.3531
étang	-11.3537
▁rives	-11.3538
▁proposent	-11.3538
Journal	-11.354
rose	-11.3541
▁Boris	-11.3541
▁1877	-11.3543
▁cul	-11.3547
▁opposant	-11.3548
▁Robin	-11.3549
▁remplacés	-11.3552
rois	-11.3552
▁Madagascar	-11.3553
▁neutre	-11.3553
eul	-11.3557
2019	-11.3557
gam	-11.3558
▁ordinaire	-11.3559
▁Nintendo	-11.3559
identification	-11.356
▁Sant	-11.356
▁Bâle	-11.3562
cast	-11.3563
ui	-11.3565
azi	-11.3566
aco	-11.3566
▁reconstruite	-11.3568
▁chat	-11.3569
▁Libération	-11.3569
▁Ob	-11.3571
▁Rivière	-11.3572
▁prévention	-11.3572
▁Situé	-11.3572
▁grandi	-11.3574
ichi	-11.3575
vern	-11.3576
arrête	-11.3579
utilité	-11.3583
▁colère	-11.3584
▁Mala	-11.3584
▁Madame	-11.3585
▁condamnation	-11.3586
▁vallées	-11.3586
▁my	-11.3586
▁intéressé	-11.3587
Tri	-11.3591
PL	-11.3591
intensité	-11.3592
▁têtes	-11.3593
▁théorique	-11.3596
▁déclara	-11.3601
▁quittent	-11.3603
archéologie	-11.3605
▁poussée	-11.3605
▁écart	-11.3605
▁1904	-11.3605
▁Kol	-11.3605
▁Gall	-11.3606
▁Miller	-11.3606
▁incapable	-11.3611
oxygène	-11.3611
yon	-11.3612
effectue	-11.3616
▁continué	-11.3616
amb	-11.3618
▁Colomb	-11.362
▁offrir	-11.362
▁Franc	-11.3621
sible	-11.3622
ock	-11.3624
▁Jr	-11.3626
Auguste	-11.3627
OR	-11.363
▁existence	-11.3631
▁Xi	-11.3634
▁sauvetage	-11.3637
▁Francfort	-11.3637
▁noires	-11.3638
UMP	-11.3638
▁éventuellement	-11.3641
▁allié	-11.3641
▁humide	-11.3642
das	-11.3642
également	-11.3643
Philippe	-11.3643
▁muet	-11.3645
four	-11.3646
neur	-11.3646
▁Romain	-11.3647
para	-11.3648
▁portion	-11.3649
DE	-11.365
mique	-11.365
▁psychologique	-11.365
ucci	-11.3651
UC	-11.3652
▁Alice	-11.3652
chemin	-11.3656
Lu	-11.3656
▁architecture	-11.3657
gur	-11.3657
dro	-11.3661
▁Chal	-11.3663
sign	-11.3664
▁orientales	-11.3665
▁Fur	-11.3668
haus	-11.3668
▁firme	-11.3669
▁énorme	-11.3669
▁stabilité	-11.367
▁Queen	-11.3673
ailles	-11.3674
▁québécoise	-11.3674
▁University	-11.3675
▁Oscar	-11.3676
▁éclat	-11.3677
▁administratives	-11.368
umi	-11.368
▁exceptionnel	-11.3682
▁Lisbonne	-11.3682
ido	-11.3683
▁réactions	-11.3685
▁Pier	-11.3687
▁XII	-11.3688
▁Louvre	-11.3689
mini	-11.369
interface	-11.369
▁nage	-11.3691
ampleur	-11.3691
▁emploie	-11.3692
▁rayons	-11.3693
▁plaisir	-11.3695
▁réplique	-11.3695
Croix	-11.3698
▁coulé	-11.3701
naise	-11.3701
cation	-11.3702
▁extraordinaire	-11.3702
▁munitions	-11.3702
6.	-11.3706
▁caché	-11.3709
▁résidences	-11.3714
▁respecter	-11.3715
zone	-11.3716
quo	-11.3716
vue	-11.3719
iro	-11.3719
▁adresse	-11.372
head	-11.372
▁Sara	-11.3723
time	-11.3724
▁graines	-11.3724
▁intime	-11.3724
▁talents	-11.3725
▁1948,	-11.3726
Op	-11.3727
stri	-11.3728
▁fu	-11.3729
▁gardé	-11.3731
▁riz	-11.3731
attribution	-11.3732
▁symboles	-11.3734
▁1882	-11.3734
▁Vatican	-11.3735
▁détention	-11.3735
Atlanta	-11.3735
▁crête	-11.3735
▁caractérisé	-11.3735
▁barrière	-11.3737
graph	-11.3738
rach	-11.3738
escadre	-11.374
▁préserver	-11.3741
uv	-11.3742
fen	-11.3742
▁argentin	-11.3743
▁destin	-11.3744
bla	-11.3749
▁Cli	-11.3749
▁cuir	-11.3749
org	-11.3752
▁Stan	-11.3757
iano	-11.3757
élo	-11.3759
▁effectifs	-11.3759
TS	-11.3759
▁distances	-11.376
cier	-11.3761
▁municipaux	-11.3761
▁Élections	-11.3761
▁Qua	-11.3761
▁touristes	-11.3762
ual	-11.3766
▁Mid	-11.3767
▁Magn	-11.3767
grange	-11.377
▁baies	-11.3772
stic	-11.3773
▁favorables	-11.3774
▁provoquer	-11.3774
ké	-11.3776
▁loisirs	-11.3777
▁dépenses	-11.3777
▁chars	-11.3778
fl	-11.3779
▁combiné	-11.378
UEFA	-11.3781
idés	-11.3782
▁comparable	-11.3782
▁décrire	-11.3783
ele	-11.3784
ark	-11.3784
▁renonce	-11.3784
uté	-11.3785
▁dominante	-11.3787
▁rames	-11.3789
▁Fernand	-11.3791
▁quête	-11.3795
▁sèche	-11.3795
rama	-11.3796
▁rendue	-11.3796
▁Central	-11.3798
▁brève	-11.3801
▁institution	-11.3801
▁chapiteaux	-11.3801
▁95	-11.3801
▁bra	-11.3806
ink	-11.3808
cène	-11.3809
▁Xavier	-11.3811
▁1915	-11.3812
tres	-11.3813
organisme	-11.3814
▁priorité	-11.3815
▁Française	-11.3816
▁110	-11.3816
ndi	-11.3817
wen	-11.3817
lag	-11.3818
▁Barr	-11.3818
rière	-11.3821
céd	-11.3824
▁primaires	-11.3824
▁syndicats	-11.3826
▁arrêtés	-11.3829
▁libérale	-11.3829
▁convaincu	-11.383
▁dessiné	-11.3831
▁déployé	-11.3833
▁appliqué	-11.3834
▁architectes	-11.3834
quée	-11.3835
▁Ap	-11.3835
Nicolas	-11.3836
▁détenu	-11.3837
▁bombardement	-11.3838
Com	-11.3839
nen	-11.384
iga	-11.384
▁correspondent	-11.3841
▁protestants	-11.3846
▁Éric	-11.3848
▁Seigneur	-11.3853
ller	-11.3853
▁battent	-11.3854
▁1866	-11.3854
œuvres	-11.3855
▁terrestres	-11.3855
kins	-11.3857
▁Vichy	-11.3861
oro	-11.3861
fel	-11.3863
▁devenus	-11.3863
▁Bond	-11.3864
▁Columbia	-11.3867
atur	-11.3867
▁Boulogne	-11.3867
▁magique	-11.3868
pper	-11.3873
▁paire	-11.3873
▁Besançon	-11.3873
▁Gon	-11.3874
▁éclate	-11.3875
▁caméra	-11.3876
hum	-11.3879
▁couverte	-11.388
sser	-11.3882
▁mes	-11.3883
▁introduite	-11.3885
▁bulle	-11.3885
Édouard	-11.3885
examen	-11.3886
▁1800	-11.3886
▁climatique	-11.3887
▁maintenu	-11.3887
▁Équipe	-11.3887
▁Fal	-11.3888
▁éducation	-11.3889
tos	-11.389
▁univers	-11.3891
odi	-11.3891
▁conservés	-11.3891
▁pratiqué	-11.3892
▁App	-11.3893
▁portugaise	-11.3894
▁créées	-11.3894
▁républicains	-11.3894
▁1936,	-11.3896
oto	-11.3898
▁rétro	-11.3898
Blo	-11.3899
immigration	-11.39
▁proviennent	-11.39
Ko	-11.39
▁localement	-11.39
▁effectuée	-11.3903
▁Gran	-11.3906
▁astronomique	-11.3906
▁découpage	-11.3906
engagement	-11.3907
▁1887	-11.3909
▁créa	-11.3911
▁sommes	-11.3911
▁perdue	-11.3913
▁Euro	-11.3914
pres	-11.3915
inauguration	-11.392
▁rendit	-11.3921
▁mondiaux	-11.3926
anga	-11.3927
acier	-11.3927
▁vendue	-11.3928
zza	-11.3929
Arabie	-11.393
100	-11.3933
▁poudre	-11.3933
▁certainement	-11.3933
liste	-11.3935
▁affronter	-11.3937
▁prime	-11.3937
gate	-11.3941
ister	-11.3942
▁croisement	-11.3943
beau	-11.3943
Ge	-11.3945
▁Soul	-11.3947
▁compagnons	-11.3947
atus	-11.3948
▁GT	-11.3948
pat	-11.3949
▁sauvages	-11.3951
▁rapproche	-11.3951
oct	-11.3956
sis	-11.3956
▁complément	-11.3958
▁Morgan	-11.3958
hel	-11.3959
cad	-11.396
▁Ras	-11.3961
▁indiquent	-11.3962
▁130	-11.3963
▁hôpital	-11.3963
▁Night	-11.3964
▁mammifères	-11.3964
▁interdite	-11.3964
▁Band	-11.3966
▁outil	-11.3969
▁décors	-11.397
▁contraintes	-11.397
▁vélo	-11.3971
▁lourde	-11.3972
▁écrivit	-11.3973
▁Alliés	-11.3973
▁hypothèse	-11.3974
▁puissants	-11.3975
▁espagnols	-11.3977
▁évoluait	-11.3981
pér	-11.3983
▁festivals	-11.3984
▁sportives	-11.3985
▁spécialité	-11.3986
▁fausse	-11.3986
▁séparés	-11.3988
vois	-11.3989
▁impact	-11.3989
▁courtes	-11.3991
▁Ouest	-11.3991
flu	-11.3995
agir	-11.3995
orum	-11.3996
▁soulèvement	-11.3998
▁Berne	-11.4001
▁Good	-11.4001
▁Beach	-11.4003
▁bénéficier	-11.4004
chal	-11.4004
▁déterminé	-11.4004
▁repas	-11.4006
humour	-11.4007
▁Ple	-11.4009
▁Chat	-11.4011
▁moyennes	-11.4013
▁Bowl	-11.4013
▁Noire	-11.4015
▁nombres	-11.4017
entrer	-11.4019
▁1792	-11.4021
oïdes	-11.4021
▁sortent	-11.4021
▁Clark	-11.4022
abi	-11.4024
▁jouée	-11.4024
▁Anderson	-11.4024
▁rendement	-11.4025
fri	-11.4026
▁reproche	-11.4027
▁survivants	-11.4028
may	-11.4029
▁classées	-11.403
Ce	-11.4031
▁By	-11.4031
Une	-11.4031
▁ennemi	-11.4032
▁évoluer	-11.4033
▁Miami	-11.4036
▁annoncée	-11.4037
▁Rus	-11.4037
▁System	-11.4038
▁Batt	-11.4038
FF	-11.404
isa	-11.4042
dite	-11.4043
▁Bruce	-11.4043
▁romane	-11.4043
▁esthétique	-11.4044
empêche	-11.4044
▁proposée	-11.4045
dée	-11.4046
▁présidé	-11.4046
▁Cad	-11.4046
Calédonie	-11.4047
▁Main	-11.4048
▁endommagé	-11.405
ward	-11.4051
▁gratuit	-11.4053
▁implanté	-11.4053
adhésion	-11.4054
reau	-11.4056
importantes	-11.4057
kou	-11.4058
▁Has	-11.4059
▁Espagnols	-11.4059
▁spéciales	-11.4059
étendre	-11.4061
Haute	-11.4061
▁revendique	-11.4062
▁Ama	-11.4062
▁bref	-11.4062
GA	-11.4064
▁métallique	-11.4067
▁Havre	-11.4068
▁récompensé	-11.407
▁emprunte	-11.4071
▁Post	-11.4072
▁châteaux	-11.4076
▁Od	-11.4076
toi	-11.4078
!"	-11.408
▁saints	-11.4081
rez	-11.4082
▁prétend	-11.4084
Don	-11.4084
▁Haye	-11.4085
▁canaux	-11.4085
ping	-11.4088
ae	-11.4091
ota	-11.4093
▁RC	-11.4094
mou	-11.4098
▁Vau	-11.4099
alerte	-11.4101
urie	-11.4104
▁Limoges	-11.4108
▁Margaret	-11.4108
▁1865	-11.4108
▁luxe	-11.4115
vingt	-11.4115
alisé	-11.4115
esclavage	-11.4115
▁Academy	-11.4115
▁Grégoire	-11.4119
▁Anthony	-11.4119
habitude	-11.4119
▁levée	-11.412
▁Alt	-11.4121
▁Water	-11.4121
▁déplacé	-11.4123
▁rapporté	-11.4124
cade	-11.4125
▁institut	-11.4125
▁citoyen	-11.4128
▁diminue	-11.4128
▁jugée	-11.4128
▁récupéré	-11.4129
▁marin	-11.4129
hara	-11.4129
▁fût	-11.4129
▁effectivement	-11.4133
phone	-11.4136
▁1868	-11.4137
▁chanter	-11.4138
Cl	-11.4139
tives	-11.414
version	-11.4141
▁possibilités	-11.4141
vée	-11.4142
▁enregistrée	-11.4143
▁1874	-11.4144
rop	-11.4145
Che	-11.4147
▁draft	-11.4147
importants	-11.4149
▁disciplines	-11.415
▁subir	-11.4151
▁exploit	-11.4156
▁offrant	-11.4156
▁Massachusetts	-11.4157
▁DC	-11.4158
Isère	-11.4159
arde	-11.4159
iane	-11.416
▁pénal	-11.416
▁Chapelle	-11.4162
▁tâches	-11.4164
indique	-11.4167
victoire	-11.4169
▁Lituanie	-11.417
▁Heinrich	-11.417
▁Fre	-11.4171
▁travailliste	-11.4172
IA	-11.4173
▁athlètes	-11.4174
▁recrutement	-11.4175
animaux	-11.4177
SM	-11.4178
▁85	-11.4179
▁courbe	-11.4181
▁Joan	-11.4181
▁hypo	-11.4183
▁souffle	-11.4184
▁dents	-11.4184
▁travée	-11.4185
▁accordée	-11.4187
▁Cin	-11.4187
Allemand	-11.4187
▁normal	-11.4188
▁Forces	-11.4189
▁Malte	-11.4189
▁diminution	-11.419
▁dépassé	-11.4191
▁actuelles	-11.4191
oblast	-11.4196
xe	-11.4197
▁Carol	-11.4197
▁rappeur	-11.4197
Esprit	-11.4197
▁1914,	-11.4204
escorte	-11.4205
▁Hugues	-11.4205
▁1959,	-11.4206
dos	-11.4206
▁1861	-11.4208
▁Gaule	-11.421
▁1883	-11.421
▁Cab	-11.4215
Super	-11.4215
▁session	-11.4217
▁Den	-11.4217
puls	-11.4219
itinéraire	-11.4224
▁Palestine	-11.4224
▁Gh	-11.4229
▁obtenue	-11.4231
SR	-11.4232
act	-11.4234
▁Alger	-11.4236
▁imposé	-11.4237
▁impose	-11.4241
épi	-11.4241
MP	-11.4243
▁migration	-11.4245
▁dauphin	-11.4245
graphe	-11.4247
▁missiles	-11.4247
▁financer	-11.425
CM	-11.4251
▁probabilité	-11.4252
hall	-11.4252
▁58	-11.4254
▁engagés	-11.4254
pec	-11.4259
▁fragments	-11.4261
▁devise	-11.4262
▁Kha	-11.4262
▁préféré	-11.4265
▁Flam	-11.4265
éléments	-11.4268
▁Rat	-11.4268
▁1872	-11.4269
▁supérieurs	-11.4271
▁triomphe	-11.4273
▁Dublin	-11.4274
▁planches	-11.4275
▁législative	-11.4276
▁disputée	-11.4279
▁parue	-11.4282
▁ouvertes	-11.4286
▁Actuellement	-11.4286
▁favorise	-11.4287
▁traverser	-11.429
▁impression	-11.4292
ifiant	-11.4293
▁déroulé	-11.4297
▁live	-11.4297
tens	-11.4298
vage	-11.4298
bay	-11.4298
▁basses	-11.4299
▁Press	-11.43
▁législatif	-11.43
▁randonnée	-11.43
▁comtes	-11.4303
hausen	-11.4304
▁Ai	-11.4306
oiseau	-11.4307
▁libéraux	-11.4308
Just	-11.4311
vari	-11.4312
écu	-11.4312
▁Mira	-11.4313
lain	-11.4314
▁compromis	-11.4314
▁Colorado	-11.4314
▁orné	-11.4314
▁étrange	-11.4315
▁Jimmy	-11.4315
rol	-11.4316
▁intervention	-11.4317
ué	-11.4317
▁prédécesseur	-11.4318
▁socio	-11.4318
▁catalan	-11.4318
▁inscriptions	-11.4319
▁gain	-11.4323
▁fusionne	-11.4325
lois	-11.4326
omi	-11.4327
▁Howard	-11.4329
gl	-11.433
▁accuse	-11.433
igue	-11.4332
▁Sub	-11.4334
temp	-11.4335
▁Ey	-11.4336
▁Asteroid	-11.4342
▁global	-11.4343
▁Claire	-11.4345
▁volcanique	-11.4346
▁bombe	-11.4348
▁mod	-11.4349
▁Magdalena	-11.4349
▁aient	-11.435
▁sauve	-11.4352
▁Miguel	-11.4356
▁dépose	-11.4356
▁tombes	-11.4357
Eure	-11.4358
▁dense	-11.436
▁travées	-11.4361
▁vidéos	-11.4363
TC	-11.4365
▁Rib	-11.4365
Nouvelle	-11.4366
ifiée	-11.4368
▁1862	-11.4368
▁attendu	-11.4369
enti	-11.437
instrument	-11.437
▁réalisations	-11.4372
tribu	-11.4373
▁affiche	-11.4374
▁dates	-11.4375
mbo	-11.4377
▁repart	-11.4377
▁Vieux	-11.4377
▁feuille	-11.4378
▁pauvre	-11.4378
▁72	-11.4378
ements	-11.4379
Sch	-11.438
Des	-11.438
▁name	-11.4381
▁certifié	-11.4384
▁Aucun	-11.4384
vid	-11.4388
chlor	-11.4388
▁Bag	-11.4391
▁compréhension	-11.4391
▁tutelle	-11.4391
▁psycho	-11.4391
▁ligues	-11.4395
effondrement	-11.4396
▁animé	-11.4396
core	-11.4396
▁belges	-11.4396
▁banques	-11.4397
intégralité	-11.4399
▁avantage	-11.4399
▁attaquer	-11.4399
etto	-11.4407
▁considérées	-11.4408
▁Trente	-11.4408
▁pli	-11.4415
▁Armand	-11.4415
▁dépens	-11.4418
▁Valentin	-11.4419
ajoutent	-11.4419
▁1947,	-11.4421
▁Cé	-11.4423
▁nommer	-11.4423
▁Mathieu	-11.4425
▁Giuseppe	-11.4426
▁Duc	-11.4429
▁réunions	-11.443
▁tenta	-11.4431
▁liaisons	-11.4431
▁hameaux	-11.4431
tiers	-11.4432
▁transporter	-11.4434
▁égyptien	-11.4437
▁1961,	-11.444
▁souvenirs	-11.4441
wick	-11.4441
▁confirmée	-11.4441
▁méditerranéen	-11.4442
df	-11.4444
▁lecteurs	-11.4446
▁1864	-11.4446
▁réédité	-11.4447
its	-11.4448
sz	-11.445
▁cadres	-11.4451
▁roche	-11.4452
▁bé	-11.4453
▁relatif	-11.4454
▁ép	-11.4454
obtention	-11.4454
Ré	-11.4454
▁Sab	-11.446
▁niche	-11.446
▁ouvrir	-11.446
▁monétaire	-11.4461
▁quarantaine	-11.4461
▁Barbara	-11.4461
rise	-11.4462
▁Paulo	-11.4464
▁Mam	-11.4464
gus	-11.4465
mut	-11.4467
▁créent	-11.4468
▁minière	-11.4468
uta	-11.4468
idéologie	-11.4468
ár	-11.4469
Ol	-11.447
▁Noir	-11.4471
▁démontré	-11.4471
▁fiscale	-11.4476
ards	-11.4478
▁systématique	-11.448
▁montage	-11.448
▁Dev	-11.4481
stin	-11.4481
▁diagnostic	-11.4482
▁forcé	-11.4483
▁faillite	-11.4484
rim	-11.4485
▁conjointement	-11.4485
aucun	-11.4487
ME	-11.4487
aussi	-11.4489
fan	-11.4491
pen	-11.4492
▁puissent	-11.4494
polo	-11.4495
▁Roll	-11.4496
émergence	-11.4496
▁Chen	-11.4497
échecs	-11.4498
effectuer	-11.45
▁Yoshi	-11.4504
▁révélation	-11.4504
▁allé	-11.4507
imo	-11.4514
▁réunis	-11.4517
▁blason	-11.4518
▁1793	-11.4518
mina	-11.452
▁comique	-11.4521
▁individuelle	-11.4523
vu	-11.4523
▁Bir	-11.4524
▁racine	-11.4526
▁conclusion	-11.4526
▁atteinte	-11.4526
vou	-11.4527
▁Allen	-11.4528
▁nazis	-11.4529
▁salaire	-11.453
▁Near	-11.453
▁pure	-11.4531
▁situations	-11.4533
▁connaissent	-11.4535
▁os	-11.4536
vez	-11.4536
ouk	-11.4537
▁hostile	-11.4539
▁surmonté	-11.4539
▁critiqué	-11.4539
▁équipés	-11.4544
aison	-11.4544
▁appartiennent	-11.4546
▁témoins	-11.4546
uy	-11.4546
▁références	-11.4547
▁décédée	-11.4547
élément	-11.4548
▁1986.	-11.4548
▁Lind	-11.455
kai	-11.455
équi	-11.455
yr	-11.4552
Eu	-11.4553
▁Rie	-11.4553
▁rachète	-11.4553
▁syndrome	-11.4553
Albi	-11.4553
▁vir	-11.4553
hymne	-11.4554
▁parution	-11.4555
▁disparaître	-11.4557
▁assemblée	-11.4565
▁Para	-11.4566
▁ballet	-11.4567
▁africain	-11.457
▁baptisée	-11.4573
▁chômage	-11.4574
▁bière	-11.4577
▁Histoire	-11.4577
Ferrand	-11.4577
▁nationaliste	-11.4577
▁concentre	-11.4578
▁170	-11.4578
▁énergie	-11.4581
▁Atlantique	-11.4581
▁Jeunesse	-11.4585
gs	-11.4587
▁spéciaux	-11.4588
▁Bologne	-11.4589
▁raid	-11.4589
▁Golden	-11.4589
Estonie	-11.459
issé	-11.4592
▁tombeau	-11.4592
vr	-11.4594
▁TER	-11.4594
▁Jin	-11.4596
▁attitude	-11.4597
explosion	-11.4597
▁rentrée	-11.4597
gia	-11.4598
▁Sy	-11.4598
▁secrets	-11.4598
▁Nik	-11.4602
installa	-11.4602
tière	-11.4603
ordinateur	-11.4604
▁Cort	-11.4605
▁Tarn	-11.4605
▁nouvellement	-11.4606
innovation	-11.4607
▁nazie	-11.4608
jour	-11.4608
▁courante	-11.4609
▁présentés	-11.4609
▁Nîmes	-11.461
▁cinquantaine	-11.461
▁pratiquant	-11.461
▁Devenu	-11.4613
lomb	-11.4616
any	-11.4617
▁Microsoft	-11.4617
▁connexion	-11.4617
Inter	-11.4617
▁1851	-11.4618
▁écho	-11.4619
▁Gordon	-11.4619
accompagne	-11.4625
▁records	-11.4626
▁trompe	-11.4626
▁verbe	-11.4626
▁caserne	-11.4627
▁dominé	-11.4629
gny	-11.463
▁fabriqué	-11.463
▁marocain	-11.463
Occidentale	-11.4632
Christ	-11.4632
▁demanda	-11.4635
ło	-11.4636
rate	-11.4637
▁ouverture	-11.4638
▁Dave	-11.4642
▁dépôts	-11.4645
borough	-11.4645
▁val	-11.4647
▁opus	-11.4648
▁emplois	-11.4649
▁Brand	-11.4649
stadt	-11.465
▁cinéaste	-11.4653
▁convient	-11.4653
▁palmarès	-11.4653
▁voulant	-11.4653
▁fiscalité	-11.4653
Tour	-11.4653
▁arrêtée	-11.4654
empare	-11.4654
▁1873	-11.4656
▁gré	-11.4657
▁Bleu	-11.4657
▁rez	-11.4658
eta	-11.4659
rang	-11.4659
▁dictionnaire	-11.466
▁flamand	-11.466
inae	-11.4663
▁ménage	-11.4664
iidae	-11.4665
liga	-11.4667
économiste	-11.4674
laire	-11.4675
▁essentielle	-11.4677
▁développent	-11.4679
▁confronté	-11.468
▁accent	-11.468
▁retrouvés	-11.4681
▁forestier	-11.4682
établit	-11.4682
ègue	-11.4682
▁ancêtres	-11.4682
FC	-11.4683
▁déposée	-11.4683
ssier	-11.4684
2020	-11.4684
▁Corn	-11.4684
▁domestique	-11.4685
SL	-11.4686
maçon	-11.4687
vrier	-11.469
▁enseignant	-11.4691
▁contacts	-11.4694
▁simultanément	-11.4698
▁banc	-11.4699
▁jet	-11.47
▁Jura	-11.4701
▁CE	-11.4702
▁perception	-11.4703
▁confort	-11.4703
▁halte	-11.4704
▁Jour	-11.4705
resse	-11.4705
sberg	-11.4707
rium	-11.4707
▁Fro	-11.4707
▁géométrie	-11.4711
accéder	-11.4711
▁molécules	-11.4711
▁témoignent	-11.4717
▁industrielles	-11.4719
▁Kid	-11.4719
▁1869	-11.472
▁terminent	-11.4721
▁Jen	-11.4724
▁partent	-11.4725
▁filière	-11.4728
▁gras	-11.4728
▁drogue	-11.473
▁parking	-11.4733
▁composent	-11.4734
▁pension	-11.4737
pyr	-11.4738
▁commercialisé	-11.4738
CH	-11.4739
▁remarqué	-11.4739
UNESCO	-11.4739
▁Py	-11.474
anie	-11.4741
bru	-11.4741
▁organique	-11.4745
▁influences	-11.4747
▁contrainte	-11.4748
alle	-11.4748
▁Power	-11.4748
▁roue	-11.4748
▁Fat	-11.4748
▁Tele	-11.4748
▁1930.	-11.4749
▁Gour	-11.4749
▁suffit	-11.475
▁1984.	-11.4752
liers	-11.4753
parti	-11.4753
▁Second	-11.4754
ssac	-11.4754
▁bassiste	-11.4754
▁Cle	-11.4755
tale	-11.4757
▁séparé	-11.4759
▁bulgare	-11.4761
fait	-11.4762
uck	-11.4766
▁autorise	-11.4766
▁Michigan	-11.4768
▁degrés	-11.4768
▁manager	-11.4768
▁sauvegarde	-11.4769
▁expression	-11.4771
Saône	-11.4772
▁africaine	-11.4772
▁composants	-11.4773
▁homonyme	-11.4776
▁transmis	-11.4776
▁Pha	-11.4776
œuf	-11.4776
▁Maur	-11.4777
gique	-11.4777
▁croissante	-11.4777
anime	-11.4778
▁animée	-11.4778
▁cessé	-11.4778
▁gouvernements	-11.4779
▁Yama	-11.478
▁compositeurs	-11.4782
feu	-11.4783
▁Malaisie	-11.4783
▁Masters	-11.4783
riste	-11.4783
lande	-11.4783
▁attraction	-11.4784
rm	-11.4785
yle	-11.4786
▁poser	-11.4786
▁mesurer	-11.4788
▁comptent	-11.4789
illustre	-11.4789
▁peloton	-11.479
▁atteignant	-11.479
▁glacier	-11.479
▁Vir	-11.479
▁Ev	-11.4792
▁vitesses	-11.4793
km	-11.4793
▁transit	-11.4794
▁rap	-11.4795
▁élaboré	-11.4798
▁sélectionneur	-11.48
▁cumul	-11.4802
rien	-11.4803
▁décisive	-11.4804
▁Suite	-11.4804
objets	-11.4805
colonel	-11.4806
▁Écosse	-11.4806
▁chantiers	-11.4811
▁provincial	-11.4811
▁ensembles	-11.4812
ect	-11.4812
▁Missouri	-11.4812
▁rabbin	-11.4813
▁briques	-11.4815
pr	-11.4816
▁graphe	-11.4816
▁chroniqueur	-11.4818
romaine	-11.4819
▁précoce	-11.4819
▁reprenant	-11.4819
▁Villeneuve	-11.482
▁Med	-11.482
▁volet	-11.4822
▁fonctionnaire	-11.4822
▁exposée	-11.4823
ssait	-11.4823
▁pyramide	-11.4825
brun	-11.4825
quel	-11.4826
▁châssis	-11.4827
▁console	-11.4827
▁cantonal	-11.4828
▁envahi	-11.4828
TE	-11.4832
DP	-11.4832
morph	-11.4832
Azerbaïdjan	-11.4834
▁Gênes	-11.4834
GM	-11.4835
▁Charlie	-11.4836
▁indépendance	-11.4838
▁Pet	-11.484
▁Public	-11.4841
ID	-11.4843
insectes	-11.4843
Occident	-11.4845
▁Fau	-11.4846
Pont	-11.4848
1998	-11.4851
gem	-11.4852
▁1879	-11.4853
▁démoli	-11.4854
▁planètes	-11.4855
Aisne	-11.4856
▁Taka	-11.4857
▁Marche	-11.4859
▁hérite	-11.4859
tech	-11.4862
wal	-11.4862
Uruguay	-11.4863
▁répétition	-11.4863
▁chevet	-11.4864
▁sentiments	-11.4865
rell	-11.4865
▁défait	-11.4866
▁chapeau	-11.4867
▁uniforme	-11.4868
▁gravement	-11.4869
▁industries	-11.4869
▁orienté	-11.487
▁minorité	-11.4871
jar	-11.4871
▁proto	-11.4871
Mé	-11.4872
cit	-11.4874
▁indiquant	-11.4874
▁batailles	-11.4875
▁essaie	-11.4876
▁distingué	-11.4878
▁Ludwig	-11.4878
ovo	-11.4878
ET	-11.488
▁taxe	-11.488
Neuve	-11.4881
▁empêche	-11.4881
▁Via	-11.4881
▁modéré	-11.4881
▁Fan	-11.4882
▁détroit	-11.4882
▁mexicain	-11.4883
▁Vu	-11.4885
▁miroir	-11.4885
▁affirmant	-11.4888
▁Vendée	-11.4889
▁disant	-11.4889
▁produisant	-11.4892
▁Sto	-11.4894
▁poètes	-11.4898
▁quinzaine	-11.49
▁valide	-11.4901
▁flore	-11.4902
▁invite	-11.4904
▁cave	-11.4905
nale	-11.4908
▁mémoires	-11.4909
▁Spe	-11.491
espagnol	-11.491
▁sent	-11.4911
▁1955,	-11.4912
▁66	-11.4913
▁Tag	-11.4913
▁Pel	-11.4914
▁emblématique	-11.4915
▁métaux	-11.4916
▁fusil	-11.4916
cycl	-11.4916
▁artificielle	-11.4918
borg	-11.4918
▁1918,	-11.4919
▁dites	-11.492
▁1953,	-11.4921
▁traversant	-11.4922
▁démo	-11.4922
▁Jeff	-11.4924
▁intercommunale	-11.4925
▁gr	-11.4927
▁1801	-11.4928
ST	-11.4928
▁occidentaux	-11.4929
▁prochain	-11.493
▁externe	-11.4931
▁parfum	-11.4931
oua	-11.4932
loi	-11.4932
▁Devant	-11.4934
▁aboutit	-11.4936
▁biologie	-11.494
▁tardive	-11.4943
▁Leipzig	-11.4944
▁Direction	-11.4944
▁transmet	-11.4945
uba	-11.4945
▁arrêter	-11.4945
▁normalement	-11.4945
▁Athènes	-11.4948
▁Wen	-11.4949
▁Sz	-11.4949
▁souffre	-11.4949
▁démarre	-11.4952
page	-11.4952
▁emprunté	-11.4952
▁continua	-11.4952
▁survie	-11.4953
▁timbre	-11.4953
▁fusée	-11.4955
▁masque	-11.4958
▁corne	-11.4958
ever	-11.4958
▁sacrée	-11.4958
▁triangle	-11.496
▁gardes	-11.4961
▁iso	-11.4964
Fl	-11.4967
cons	-11.4967
OC	-11.4968
▁relatives	-11.4969
ghi	-11.497
▁Gare	-11.497
tori	-11.497
▁coton	-11.4972
▁Thaïlande	-11.4974
▁attribués	-11.4976
▁mythe	-11.4977
rk	-11.4977
ope	-11.4977
▁minéral	-11.4979
Éthiopie	-11.4981
▁ferrée	-11.4982
▁répandu	-11.4983
kine	-11.4983
▁répandue	-11.4984
africain	-11.4984
▁calculé	-11.4984
imon	-11.4986
omp	-11.4986
iti	-11.4987
Quentin	-11.4989
5.	-11.4989
pra	-11.499
▁logis	-11.4991
▁Gun	-11.4992
▁fermes	-11.4992
agé	-11.4993
▁RD	-11.4994
▁CF	-11.4996
▁licencié	-11.4996
▁mannequin	-11.4996
horreur	-11.4996
▁entrées	-11.4997
ologue	-11.4997
▁Seuls	-11.4998
▁entendre	-11.5001
PO	-11.5001
▁Moselle	-11.5002
▁frégate	-11.5003
▁Navarre	-11.5003
▁civiles	-11.5003
▁éloigné	-11.5006
▁toiles	-11.5006
▁brillante	-11.5007
rec	-11.5008
Amour	-11.5009
▁armés	-11.5009
▁indigènes	-11.5009
▁rond	-11.501
▁détachement	-11.501
rôle	-11.501
réal	-11.5012
▁parlant	-11.5016
▁complété	-11.5016
eth	-11.5018
▁ajouter	-11.5018
amphibiens	-11.5019
camp	-11.5022
▁réunir	-11.5022
▁médiéval	-11.5022
▁commentaires	-11.5024
▁Vic	-11.5025
▁manœuvre	-11.5025
▁Jonathan	-11.5026
▁Santiago	-11.5026
Mor	-11.5028
▁Fernando	-11.5028
▁battue	-11.5029
phil	-11.5029
▁Mons	-11.5034
gno	-11.5034
zac	-11.5034
Ti	-11.5035
▁ondes	-11.5036
ios	-11.5037
cca	-11.5037
▁temples	-11.5039
▁parallèlement	-11.504
▁pâte	-11.5041
▁Raoul	-11.5042
_5	-11.5043
Bois	-11.5043
▁carrée	-11.5045
▁graveur	-11.5046
▁détenus	-11.5046
rod	-11.5046
▁Julie	-11.5047
▁1814	-11.5047
▁Mexico	-11.5048
▁collaborateurs	-11.505
▁fraction	-11.5051
▁intéressant	-11.5051
▁Bud	-11.5051
sburg	-11.5051
▁successives	-11.5056
coréenne	-11.5056
▁colonial	-11.5057
ailier	-11.5058
▁ménages	-11.5059
ues	-11.5062
▁dépasser	-11.5066
▁1855	-11.5068
uter	-11.5068
▁sonore	-11.5069
▁emmené	-11.5069
▁cloche	-11.5069
▁chancelier	-11.5069
pic	-11.5071
iac	-11.5071
andre	-11.5074
PK	-11.5074
▁spécialisés	-11.5076
naires	-11.5077
lées	-11.5078
apa	-11.508
radi	-11.5081
▁céramique	-11.5082
▁effectués	-11.5089
▁Route	-11.5092
dj	-11.5092
▁disposant	-11.5093
▁prestigieux	-11.5093
▁clôture	-11.5094
▁pat	-11.5094
icul	-11.5094
path	-11.5096
▁Bonn	-11.5097
▁fichiers	-11.5097
his	-11.5099
▁Kennedy	-11.51
▁Liverpool	-11.51
IV	-11.5102
▁140	-11.5103
▁disc	-11.5103
stro	-11.5103
▁distinctes	-11.5106
infrastructure	-11.5106
▁races	-11.5106
▁communications	-11.5107
▁résident	-11.5108
▁Grecs	-11.5108
▁rassemblement	-11.511
▁adhère	-11.5112
▁démontre	-11.5112
▁timbres	-11.5114
appartenance	-11.5115
▁alimentaires	-11.5118
▁Lau	-11.5118
▁parvenir	-11.5119
▁Nat	-11.5119
échantillon	-11.5121
▁go	-11.5121
Étoile	-11.5123
▁frappé	-11.5125
▁Petr	-11.5126
▁Christopher	-11.513
Port	-11.5132
▁quitta	-11.5134
▁Santé	-11.5138
oïde	-11.5138
▁indispensable	-11.5138
▁vitraux	-11.5138
▁opposée	-11.5139
SV	-11.5139
arg	-11.5139
▁Stein	-11.5142
▁renseignement	-11.5142
1991	-11.5143
▁effectuées	-11.5145
▁Mich	-11.5146
▁US	-11.5148
▁Dame	-11.5151
▁variation	-11.5151
▁soie	-11.5151
▁Had	-11.5153
tout	-11.5153
▁télévisé	-11.5153
dot	-11.5157
▁directive	-11.5159
Silésie	-11.5159
▁Rick	-11.516
▁atteignent	-11.5161
▁59	-11.5161
quier	-11.5162
▁Couronne	-11.5163
1999	-11.5164
▁Seul	-11.5166
▁temporaire	-11.5167
extinction	-11.5168
aluminium	-11.5168
hésite	-11.5169
▁Mission	-11.517
▁autorisée	-11.517
▁Wol	-11.517
zia	-11.517
▁1977.	-11.5171
algorithme	-11.5174
opposer	-11.5174
ân	-11.5174
ignant	-11.5174
isées	-11.5175
▁posthume	-11.5176
▁nourri	-11.5178
▁nordique	-11.5178
▁Hollywood	-11.5178
▁!"	-11.5181
▁Glo	-11.5182
tail	-11.5183
▁terrible	-11.5183
▁Janeiro	-11.5184
▁Tang	-11.5185
▁formés	-11.5186
▁supprimée	-11.5189
herbe	-11.5189
▁échangé	-11.5191
▁journées	-11.5191
▁détaché	-11.5191
▁entraînant	-11.5191
ètes	-11.5193
▁Meuse	-11.5193
istique	-11.5193
▁Java	-11.5194
▁Science	-11.5195
▁hydro	-11.5196
BS	-11.5197
▁israélien	-11.5198
▁précurseur	-11.5198
▁forfait	-11.5199
▁forge	-11.5199
ignac	-11.52
▁Nommé	-11.52
▁desservi	-11.5201
▁hongroise	-11.5205
▁Eli	-11.5205
▁auxquelles	-11.5206
anciennement	-11.5208
interprète	-11.5211
▁élevées	-11.5214
▁océanique	-11.5215
▁partagent	-11.5217
avènement	-11.5221
éco	-11.5222
▁solitaire	-11.5222
▁Chacun	-11.5226
communications	-11.5227
▁orange	-11.5227
augmenter	-11.5227
▁Slovaquie	-11.5229
abolition	-11.5231
▁Plat	-11.5233
▁125	-11.5233
amine	-11.5234
escalier	-11.5234
▁Singapour	-11.5236
tol	-11.5238
▁relate	-11.5239
▁Bran	-11.5239
Bri	-11.5239
eille	-11.5242
▁duchesse	-11.5243
Afghanistan	-11.5244
▁conservateurs	-11.5245
▁juges	-11.5246
▁auxiliaire	-11.5246
▁ruine	-11.5247
▁brillant	-11.5248
▁constructeurs	-11.5249
uld	-11.525
▁discussion	-11.5251
▁serpent	-11.5251
▁apparemment	-11.5252
pal	-11.5258
▁Midi	-11.5258
iner	-11.5259
▁Tir	-11.5259
impératrice	-11.5259
▁Rugby	-11.5259
Ottawa	-11.526
▁implantée	-11.5261
Alexandrie	-11.5263
▁fréquenté	-11.5264
▁Tha	-11.5265
vine	-11.5266
lien	-11.5266
carbon	-11.5266
▁bourgeois	-11.5266
▁solidarité	-11.5267
▁devra	-11.5267
▁latitude	-11.5267
▁abbaye	-11.5267
▁prévision	-11.5268
▁rachat	-11.5269
▁Fair	-11.5269
gram	-11.527
▁Poly	-11.527
▁rejette	-11.5271
▁Billy	-11.5272
Indre	-11.5272
▁produites	-11.5274
▁Rai	-11.5275
▁magazines	-11.5277
▁Guer	-11.5278
▁distribué	-11.5279
fect	-11.528
▁Life	-11.5282
atterrissage	-11.5282
▁Google	-11.5282
▁terminus	-11.5282
international	-11.5283
cub	-11.5285
▁Rochelle	-11.5285
gée	-11.5286
intrigue	-11.5288
▁voté	-11.5289
akh	-11.5291
▁Forest	-11.5291
nerie	-11.5291
AV	-11.5292
▁Tai	-11.5293
pent	-11.5293
▁Gru	-11.5293
▁vif	-11.5294
▁Gan	-11.5295
▁manger	-11.5296
élévation	-11.5297
▁crâne	-11.5298
▁Comics	-11.5298
▁pou	-11.5298
▁Norman	-11.5302
iant	-11.5304
▁show	-11.5304
▁bâtie	-11.5305
érien	-11.5305
▁Hard	-11.5309
▁Salvador	-11.5313
▁testament	-11.5313
▁Renaud	-11.5314
▁punk	-11.5315
▁Pala	-11.5315
polis	-11.5317
▁fonctionner	-11.5317
▁exécution	-11.5317
▁concurrents	-11.5318
▁accéder	-11.532
ades	-11.5321
▁Détroit	-11.5322
▁artisans	-11.5322
▁Guinée	-11.5323
gat	-11.5325
war	-11.5326
▁cellulaire	-11.5326
▁Initialement	-11.5328
▁conservatoire	-11.5328
▁payé	-11.5329
fest	-11.5331
▁envoya	-11.5332
▁Bohême	-11.5336
▁symphonique	-11.5336
▁sociologie	-11.5336
DI	-11.5337
aura	-11.5337
▁chiens	-11.5338
scope	-11.5339
rite	-11.5339
ographe	-11.5341
ove	-11.5342
▁chaussée	-11.5343
▁Chef	-11.5343
villa	-11.5343
▁promesse	-11.5344
hot	-11.5345
▁pattes	-11.5345
▁divin	-11.5346
▁argent	-11.5347
▁fé	-11.5348
▁parlé	-11.5349
▁composées	-11.5349
▁monté	-11.5351
▁vicaire	-11.5352
▁donation	-11.5356
hai	-11.5356
▁condamnés	-11.5357
sac	-11.5358
éclair	-11.5358
Angoulême	-11.5359
▁Magazine	-11.5359
▁préparé	-11.5359
▁finissent	-11.536
erne	-11.536
▁contrôlée	-11.5361
mol	-11.5365
▁galeries	-11.5365
▁incluent	-11.5367
▁suffrage	-11.5368
▁María	-11.5368
▁abus	-11.5368
▁1933,	-11.5369
intercommunalité	-11.537
▁Auto	-11.5371
▁Media	-11.5371
▁dérivée	-11.5372
ouf	-11.5373
▁Chelem	-11.5375
▁1987.	-11.5376
▁concepts	-11.5378
▁connut	-11.5378
PE	-11.5379
▁1982.	-11.538
lard	-11.538
▁financé	-11.5381
▁aéroport	-11.5382
▁requête	-11.5382
ivité	-11.5384
▁63	-11.5384
▁And	-11.5384
▁rame	-11.5385
▁absent	-11.5386
▁plume	-11.5388
▁succédé	-11.539
NT	-11.539
elin	-11.539
▁trouvaient	-11.5391
▁700	-11.5391
▁intra	-11.5392
▁réglementation	-11.5392
▁perfection	-11.5394
▁Justin	-11.5396
rig	-11.5397
▁périmètre	-11.5398
nova	-11.5398
▁médiatique	-11.54
gle	-11.54
Wa	-11.54
▁Cons	-11.5403
▁honneur	-11.5403
etz	-11.5403
bury	-11.5404
▁rallye	-11.5405
tino	-11.5407
▁Dra	-11.5407
acées	-11.5409
▁ça	-11.541
alli	-11.5411
▁croissant	-11.5411
cque	-11.5411
▁habité	-11.5413
▁sépulture	-11.5413
▁atomique	-11.5413
noy	-11.5415
▁renvoie	-11.5415
▁récurrent	-11.5415
essence	-11.5416
▁bordée	-11.5418
▁qualifiée	-11.5421
envergure	-11.5421
▁servait	-11.5421
Oxford	-11.5421
yre	-11.5423
fini	-11.5423
▁contour	-11.5423
cli	-11.5424
▁Éli	-11.5425
arbres	-11.5426
▁sérieux	-11.5427
▁urbains	-11.5429
▁aborde	-11.5429
▁Nigeria	-11.5429
héritage	-11.543
▁Té	-11.5436
▁1859	-11.5438
Ag	-11.5438
▁1985.	-11.5438
▁enseignants	-11.5439
▁demandant	-11.5439
oche	-11.5443
▁nocturne	-11.5444
▁expérimentale	-11.5446
▁immobilier	-11.5446
▁Moore	-11.5446
▁déf	-11.5447
▁citation	-11.5447
▁Vosges	-11.5448
ann	-11.5449
rance	-11.545
audition	-11.545
▁visité	-11.545
▁Vancouver	-11.5452
Observatoire	-11.5452
▁renouvellement	-11.5455
▁communale	-11.5455
▁oublié	-11.5457
icité	-11.5459
▁fantôme	-11.546
▁dévoile	-11.546
▁individuelles	-11.5463
▁Barba	-11.5463
élever	-11.5464
amo	-11.5465
med	-11.5469
▁juniors	-11.5469
▁parfait	-11.5471
▁menacé	-11.5471
jon	-11.5471
▁ordonnance	-11.5472
Irak	-11.5473
▁courage	-11.5473
▁inventé	-11.5475
anna	-11.5477
▁technologique	-11.5479
▁1852	-11.5481
▁Monsieur	-11.5482
▁Att	-11.5482
▁carrefour	-11.5483
▁reliques	-11.5483
▁relier	-11.5484
Gen	-11.5487
▁Res	-11.5488
▁carrés	-11.5489
▁stock	-11.5491
▁surmontée	-11.5491
nch	-11.5492
▁Spi	-11.5492
UN	-11.5493
▁trouva	-11.5493
▁livré	-11.5498
▁céréales	-11.5499
étiquette	-11.5499
▁signale	-11.5499
logique	-11.55
ugh	-11.5501
explorateur	-11.5502
1995	-11.5504
Gra	-11.5505
▁tropicale	-11.5506
▁Ligne	-11.5506
▁celtique	-11.5507
▁suffisante	-11.5508
llo	-11.5508
▁Anti	-11.5511
▁Shu	-11.5511
▁servit	-11.5512
▁Kiev	-11.5513
▁physicien	-11.5514
▁organes	-11.5515
▁Théodore	-11.5515
▁partisan	-11.5515
▁attention	-11.5517
▁hip	-11.5518
icus	-11.5519
sar	-11.552
▁cylindres	-11.5522
évacuation	-11.5522
▁gouvernementale	-11.5523
gress	-11.5525
▁appliquée	-11.5526
▁lait	-11.5528
phé	-11.5528
▁Mun	-11.553
▁déplacements	-11.553
▁tissus	-11.5531
▁chirurgien	-11.5533
Tra	-11.5534
▁jouait	-11.5535
▁animateur	-11.5535
▁Chinois	-11.5536
accusation	-11.5537
▁regroupement	-11.5537
▁hérité	-11.5538
▁décorée	-11.5538
▁certificat	-11.5542
▁trouble	-11.5543
▁Play	-11.5544
▁Hesse	-11.5544
▁communiqué	-11.5545
▁fresques	-11.5546
▁fonte	-11.5547
tifs	-11.5548
▁Perse	-11.5548
▁parlent	-11.5551
▁Junior	-11.5553
▁Russell	-11.5554
▁Chang	-11.5554
▁cristal	-11.5555
▁symptômes	-11.5555
▁autonomie	-11.5556
det	-11.5559
hm	-11.556
▁allusion	-11.5561
▁natation	-11.5562
▁noté	-11.5563
▁Nobel	-11.5564
chia	-11.5565
▁entité	-11.5566
ande	-11.5567
▁Télé	-11.5568
▁censure	-11.5569
▁monoplace	-11.5569
▁Abd	-11.557
▁croisade	-11.557
▁laissent	-11.557
nistes	-11.5571
▁inspecteur	-11.5572
▁médicaments	-11.5574
▁permettra	-11.5575
▁Indien	-11.5577
▁Finances	-11.5577
▁passes	-11.5578
▁clés	-11.5578
exemplaires	-11.5578
lob	-11.5582
▁Syn	-11.5582
him	-11.5585
▁Houston	-11.5585
▁suspect	-11.5588
▁tranche	-11.5589
RC	-11.559
▁rebonds	-11.5592
▁relégation	-11.5592
▁silence	-11.5593
▁discussions	-11.5593
▁Kom	-11.5594
▁couvrant	-11.5594
▁ordinateur	-11.5594
▁comportent	-11.5595
ubi	-11.5596
▁exigences	-11.5597
water	-11.5597
oré	-11.5598
▁immédiate	-11.5598
alo	-11.5598
▁Sul	-11.5599
mari	-11.56
GC	-11.5601
▁profiter	-11.5603
agh	-11.5605
Américain	-11.5606
▁préliminaire	-11.5608
IL	-11.5611
▁peste	-11.5612
arcade	-11.5613
empêcher	-11.5615
▁suppose	-11.5616
▁décalage	-11.5616
▁routière	-11.5616
OTAN	-11.5616
mée	-11.5617
▁étranger	-11.5617
▁sensibilité	-11.5618
enburg	-11.5619
▁Île	-11.5619
▁1919,	-11.562
▁Grant	-11.5621
▁Comté	-11.5622
intervalle	-11.5622
▁entrent	-11.5625
▁aveugle	-11.5627
Athènes	-11.5628
▁aile	-11.5629
▁évoqué	-11.5631
essais	-11.5631
▁avantages	-11.5632
Cher	-11.5632
▁Ryan	-11.5633
mén	-11.5634
▁aménagé	-11.5634
▁Lambert	-11.5635
▁sigle	-11.5635
▁blesse	-11.5636
▁Gard	-11.5636
▁climatiques	-11.5639
nières	-11.564
▁répété	-11.564
fou	-11.564
▁séparer	-11.5644
▁Sorbonne	-11.5644
cke	-11.5645
▁confier	-11.5646
▁WWE	-11.5646
Sp	-11.5646
lion	-11.5647
▁billets	-11.565
▁Font	-11.565
▁apporter	-11.565
▁réuni	-11.5653
▁Lim	-11.5653
▁Out	-11.5654
▁intention	-11.5654
▁remontent	-11.5654
▁Little	-11.5655
▁62	-11.5655
▁Taïwan	-11.5656
▁diamant	-11.5656
▁Town	-11.5657
iko	-11.5658
▁His	-11.5659
▁fréquentation	-11.5659
▁pair	-11.5661
▁Match	-11.5665
▁remix	-11.5665
owski	-11.5666
▁nationalistes	-11.5668
▁gallois	-11.5668
▁livrée	-11.5669
ambition	-11.5671
▁kilomètre	-11.5671
▁détruits	-11.5674
▁immeubles	-11.5675
Cap	-11.5676
▁étudiante	-11.5676
▁fixée	-11.5676
▁1983.	-11.5677
▁cabine	-11.5678
▁mobiles	-11.5679
offici	-11.5682
▁creuse	-11.5683
▁attendant	-11.5684
▁RN	-11.5686
▁cher	-11.5687
▁Mazovie	-11.5688
trans	-11.5688
▁dérivés	-11.569
assassin	-11.569
▁voter	-11.5691
▁insectes	-11.5691
▁accepter	-11.5692
isch	-11.5692
▁livraison	-11.5696
▁façades	-11.5698
▁dénommée	-11.5701
▁bassins	-11.5703
▁coopérative	-11.5704
artisan	-11.5705
▁globalement	-11.5705
▁orientée	-11.5706
▁sacrifice	-11.5706
▁orale	-11.5707
▁verticale	-11.5707
▁régent	-11.5707
Ang	-11.5709
▁croisée	-11.571
▁1981.	-11.5712
oh	-11.5714
rock	-11.5715
▁pensent	-11.5715
ás	-11.5716
CS	-11.5717
ald	-11.5717
▁copies	-11.5719
▁bouddhisme	-11.572
▁rencontra	-11.572
▁violences	-11.572
chau	-11.572
▁quais	-11.5721
▁bords	-11.5723
▁faiblesse	-11.5723
éla	-11.5724
depuis	-11.5725
Ép	-11.5725
▁facilité	-11.5728
Isle	-11.5728
TP	-11.5731
▁provoquant	-11.5733
▁infini	-11.5733
cession	-11.5734
▁pire	-11.5734
hat	-11.5735
▁proposant	-11.5735
▁States	-11.5736
attaquer	-11.5737
▁particulières	-11.5739
▁lie	-11.5739
▁entrepris	-11.574
▁1791	-11.574
▁CN	-11.5742
fus	-11.5742
▁Rangers	-11.5744
▁67	-11.5746
bia	-11.5747
taient	-11.5749
▁armoiries	-11.5752
▁jonction	-11.5752
sang	-11.5752
▁photographique	-11.5755
▁futurs	-11.5755
LM	-11.5756
astronomie	-11.5759
▁1857	-11.5759
▁chassé	-11.576
▁académique	-11.5761
▁ultra	-11.5762
▁confession	-11.5763
▁tsar	-11.5763
▁1974.	-11.5764
▁prolongée	-11.5765
▁chevaliers	-11.5766
▁légendaire	-11.5768
Cyr	-11.5769
▁Torre	-11.5769
▁Iran	-11.5772
ènes	-11.5772
▁publiquement	-11.5775
▁abandonner	-11.5775
èche	-11.5776
▁alternatif	-11.5776
ness	-11.5777
▁flèche	-11.5777
▁juriste	-11.5777
▁concernent	-11.5779
▁domestiques	-11.5779
▁gérée	-11.5781
▁1951,	-11.5782
▁parent	-11.5782
▁Alexis	-11.5783
▁Carter	-11.5784
▁bonheur	-11.5784
▁contraste	-11.5784
eut	-11.5785
Gi	-11.5785
▁voler	-11.5785
▁new	-11.5786
▁suscite	-11.5786
automobile	-11.5787
bio	-11.5788
▁intégrer	-11.5788
▁della	-11.5789
▁Jardin	-11.5792
▁décharge	-11.5793
▁messages	-11.5796
dique	-11.5796
arche	-11.5796
▁racheté	-11.5798
Pu	-11.5799
▁dégradation	-11.58
▁Territoire	-11.58
▁plastique	-11.5802
▁conservées	-11.5802
▁Bac	-11.5804
▁pompe	-11.5804
effort	-11.5805
▁recouverte	-11.5807
▁pseudo	-11.5808
▁résume	-11.5808
▁Kurt	-11.5811
▁estimations	-11.5815
▁supposé	-11.5816
Équateur	-11.5816
▁rapprochement	-11.5817
▁développés	-11.5817
Os	-11.5819
▁coloré	-11.582
ssy	-11.582
▁absence	-11.5822
▁garantie	-11.5823
▁déco	-11.5823
lem	-11.5823
ifie	-11.5824
évaluer	-11.5826
▁numériques	-11.5827
▁séparée	-11.5829
▁religions	-11.583
▁latérales	-11.583
▁minerai	-11.583
Pyrénées	-11.583
Avignon	-11.5831
▁Shanghai	-11.5832
▁sélectionnés	-11.5832
▁demandent	-11.5834
ór	-11.5834
▁désignant	-11.5835
▁Nova	-11.5837
▁ultime	-11.5837
▁promet	-11.5837
▁possessions	-11.5839
préfecture	-11.5839
MO	-11.5839
héroïne	-11.584
▁Township	-11.584
▁proclame	-11.584
▁ouverts	-11.5841
cieux	-11.5841
▁préalable	-11.5842
▁croate	-11.5842
▁Ami	-11.5847
▁Sche	-11.5849
▁parvenu	-11.5849
▁Abraham	-11.5852
▁Îles	-11.5852
lik	-11.5853
▁hyper	-11.5855
antenne	-11.5857
Indiana	-11.5858
▁bourgeoisie	-11.5858
▁Louisiane	-11.5859
▁Viol	-11.5859
▁contrôlé	-11.5864
tat	-11.5864
▁envoyée	-11.5864
▁combattant	-11.5864
▁Nelson	-11.5864
▁bancaire	-11.5866
▁contrats	-11.5868
humain	-11.5869
▁prétendant	-11.5869
▁suisses	-11.5869
ieuse	-11.5869
▁porc	-11.5871
▁Dick	-11.5873
▁progressive	-11.5874
▁paramètres	-11.5877
▁partager	-11.5877
▁incluse	-11.5877
▁restaurée	-11.5878
▁bombardements	-11.5878
▁apparence	-11.5879
saison	-11.588
▁obtiennent	-11.5881
▁modernisation	-11.5881
TT	-11.5883
▁pentes	-11.5888
chot	-11.5888
▁Stadium	-11.5889
▁fluide	-11.5889
▁Poi	-11.5889
CN	-11.5893
▁Fay	-11.5894
six	-11.5894
▁desserte	-11.5894
blanc	-11.5895
▁Gy	-11.5897
aérodrome	-11.5897
apparence	-11.5899
▁organiser	-11.5901
▁maritimes	-11.5901
▁star	-11.5902
▁experts	-11.5903
Islande	-11.5904
▁réalisa	-11.5905
▁tendre	-11.5906
▁Dru	-11.5906
▁bibliothèques	-11.5906
▁déclarant	-11.5909
gramme	-11.5909
▁bonus	-11.591
retour	-11.591
▁quelqu	-11.5911
▁spectaculaire	-11.5913
▁Marne	-11.5915
▁Hermann	-11.5916
▁saisi	-11.5916
Sou	-11.5916
▁entrepreneur	-11.5917
▁examen	-11.5917
▁vastes	-11.5918
▁hydraulique	-11.5921
▁diminuer	-11.5922
▁Pap	-11.5923
▁blues	-11.5923
▁existant	-11.5925
▁constat	-11.5925
DR	-11.5926
▁conformé	-11.5927
▁Occitanie	-11.5928
▁occitan	-11.5928
train	-11.5929
▁disposer	-11.5931
aucune	-11.5932
▁exacte	-11.5934
▁intervenir	-11.5935
▁affluents	-11.5937
▁Kansas	-11.5938
emprunt	-11.5939
▁August	-11.5941
▁oiseau	-11.5944
▁protège	-11.5946
book	-11.5946
▁déclenche	-11.5947
▁noces	-11.5947
▁Rh	-11.5947
rc	-11.5947
orn	-11.5947
stru	-11.5948
▁situent	-11.5948
▁renoncer	-11.5949
▁tapis	-11.595
yō	-11.5951
▁Caire	-11.5953
▁prestige	-11.5954
▁significatif	-11.5954
invitation	-11.5954
▁autochtones	-11.5955
ogène	-11.5956
▁égyptienne	-11.5956
▁1846	-11.5957
▁identiques	-11.5957
▁Studios	-11.5959
▁occuper	-11.596
▁bactéries	-11.596
▁bac	-11.5961
▁Environ	-11.5961
▁problématique	-11.5962
▁township	-11.5962
▁rapprocher	-11.5969
▁consultation	-11.5971
▁opérationnel	-11.5971
pac	-11.5972
▁Christine	-11.5972
hir	-11.5972
▁Studio	-11.5973
▁régiments	-11.5975
▁romains	-11.5977
▁Fr	-11.5979
▁hybride	-11.5984
informatique	-11.5984
occupa	-11.5984
▁Sil	-11.5985
▁Gab	-11.5985
essor	-11.5985
1996	-11.5986
émie	-11.5987
▁provinciale	-11.5987
▁analyses	-11.5987
▁1854	-11.5987
intendant	-11.5989
▁Hon	-11.5989
▁voyant	-11.599
▁Bass	-11.5994
▁précieux	-11.5996
argile	-11.5996
500	-11.5998
▁Ian	-11.5999
▁philosophique	-11.6
▁entités	-11.6003
ior	-11.6007
porte	-11.6011
▁affirmé	-11.6011
ATP	-11.6012
uche	-11.6015
Ber	-11.6015
▁réguliers	-11.6016
CG	-11.6017
▁légers	-11.6017
▁définitif	-11.6017
▁couvrir	-11.6017
yi	-11.602
▁Résultats	-11.602
▁transaction	-11.6021
▁1789	-11.6023
▁Line	-11.6024
oku	-11.6026
▁départementaux	-11.6028
▁»"	-11.6028
▁africains	-11.6028
▁coordination	-11.6029
▁Galerie	-11.603
▁Sound	-11.6031
ship	-11.6031
▁1978.	-11.6032
ivre	-11.6033
▁nazi	-11.6034
▁prestation	-11.6034
▁antérieure	-11.6034
▁criminelle	-11.6034
▁policière	-11.6036
▁préférence	-11.6036
▁déficit	-11.6037
rive	-11.604
▁légal	-11.604
▁souhait	-11.6043
▁Station	-11.6044
▁susceptibles	-11.6044
▁Minnesota	-11.6044
▁considérant	-11.6044
▁Book	-11.6045
uda	-11.6047
▁92	-11.6049
▁pratiquer	-11.605
▁Directeur	-11.6053
fil	-11.6054
▁arcades	-11.6055
mori	-11.6055
At	-11.6059
▁fabricant	-11.6059
lif	-11.606
plo	-11.606
▁censé	-11.606
▁aléatoire	-11.6061
▁mécanismes	-11.6061
▁gravures	-11.6062
▁Russes	-11.6064
▁compact	-11.6064
▁Ton	-11.6067
nèrent	-11.6068
▁contenir	-11.6069
ancé	-11.607
▁locomotives	-11.607
▁antérieures	-11.6071
chère	-11.6073
▁croise	-11.6073
▁barrages	-11.6075
▁Ei	-11.6075
▁percée	-11.6075
▁brique	-11.6078
olé	-11.6078
igo	-11.6079
▁Zone	-11.6081
▁Lip	-11.6082
oum	-11.6082
▁insiste	-11.6083
▁écran	-11.6085
▁Bren	-11.6092
▁Franck	-11.6093
▁Comte	-11.6094
▁Jupiter	-11.6095
▁associées	-11.6096
▁finlandais	-11.6096
▁dons	-11.6096
▁Moulin	-11.6096
▁1856	-11.6096
▁sortes	-11.6097
▁compléter	-11.6098
▁promis	-11.6099
Coll	-11.6099
▁bénéfice	-11.6101
▁PlayStation	-11.6102
acco	-11.6102
▁encourage	-11.6103
Aube	-11.6103
rad	-11.6105
▁Canton	-11.6107
▁renforce	-11.6107
▁Dela	-11.611
▁progressiste	-11.6113
▁ouvrière	-11.6118
▁NASA	-11.6119
▁Turcs	-11.6119
▁Pil	-11.612
mac	-11.6121
My	-11.6121
kon	-11.6122
▁Yan	-11.6122
Sha	-11.6126
▁chapelles	-11.6126
▁primitive	-11.6127
▁téléspectateurs	-11.6127
▁astéroïdes	-11.6127
▁Gas	-11.6128
▁citée	-11.613
▁Borg	-11.6131
▁Cruz	-11.6132
affrontement	-11.6132
FP	-11.6133
rib	-11.6135
▁successifs	-11.6135
▁Emil	-11.6136
▁devraient	-11.6137
Dé	-11.6137
▁déplace	-11.6138
▁165	-11.6139
7.	-11.6141
nny	-11.6142
▁contributions	-11.6142
atives	-11.6143
▁panneau	-11.6145
▁désaccord	-11.6146
▁mathématique	-11.6147
▁ornée	-11.6148
▁doux	-11.6149
▁office	-11.6149
podes	-11.615
▁existé	-11.6152
▁Hélène	-11.6152
▁apprendre	-11.6154
▁serre	-11.6154
▁1858	-11.6155
▁torture	-11.6155
OP	-11.6156
▁localisation	-11.6156
iter	-11.6156
▁rappeler	-11.6158
▁défensif	-11.616
▁tragique	-11.616
▁vivait	-11.616
ssou	-11.6161
▁arrivant	-11.6162
ttle	-11.6162
▁Flo	-11.6163
▁tort	-11.6163
▁établis	-11.6165
▁reconnus	-11.6165
▁Nil	-11.6167
bell	-11.6167
▁parlée	-11.6168
York	-11.6168
▁1929,	-11.6168
▁Sarkozy	-11.6169
▁constamment	-11.6169
▁éditée	-11.6169
▁Lucas	-11.617
▁plu	-11.617
▁corde	-11.6171
▁courrier	-11.6171
▁Edmond	-11.6172
belle	-11.6173
RP	-11.6173
▁Cara	-11.6174
▁impôts	-11.6174
▁Down	-11.6175
▁tunisien	-11.6176
cf	-11.6177
▁substance	-11.6178
▁bébé	-11.6178
▁douleur	-11.6178
▁Bridge	-11.6179
▁Jason	-11.618
archidiocèse	-11.6185
inscrire	-11.6185
▁Mohammed	-11.6185
▁succéder	-11.6185
▁partagée	-11.6186
▁résolu	-11.6186
▁ravage	-11.6188
▁Arc	-11.6189
▁Jordan	-11.619
▁strictement	-11.6191
▁constaté	-11.6192
▁compagne	-11.6195
▁controverse	-11.6195
▁roumaine	-11.6196
▁carton	-11.6197
sseur	-11.6199
▁détermine	-11.62
liv	-11.6201
▁Berry	-11.6201
tions	-11.6201
▁attend	-11.6202
▁Théo	-11.6202
▁Rue	-11.6202
▁Chypre	-11.6202
appuyant	-11.6205
▁éditeurs	-11.6207
▁expansion	-11.621
▁mobilité	-11.6211
interaction	-11.6211
▁renvoyé	-11.6211
Ph	-11.6211
▁funéraire	-11.6212
otti	-11.6212
▁menaces	-11.6217
aris	-11.6217
▁catégorisée	-11.622
▁consécutives	-11.622
▁résister	-11.6221
utilisa	-11.6221
amas	-11.6221
comb	-11.6221
▁Europa	-11.6223
1997	-11.6223
rais	-11.6225
▁Cleveland	-11.6227
▁convoqué	-11.6227
▁documentaires	-11.6229
▁Wer	-11.6231
▁juridiques	-11.6232
▁Pir	-11.6234
▁habitations	-11.6235
grat	-11.6235
▁récupère	-11.6236
endre	-11.6237
▁segment	-11.6238
burn	-11.6238
▁moments	-11.6241
▁doyen	-11.6243
illustration	-11.6243
▁compatible	-11.6244
▁rendus	-11.6244
ambassadeur	-11.6245
▁hydrographique	-11.6245
▁gravure	-11.6249
▁revend	-11.625
Mal	-11.6252
▁commerçants	-11.6252
Argent	-11.6253
▁nid	-11.6254
▁personnelles	-11.6255
▁mentale	-11.6256
enfer	-11.6257
clav	-11.6258
▁annexe	-11.6259
▁dissoute	-11.6259
▁hôpitaux	-11.6261
▁pratiquée	-11.6262
uis	-11.6264
▁Formé	-11.6265
stal	-11.6266
▁tarif	-11.6267
infection	-11.6268
▁violent	-11.6269
▁patriarche	-11.6269
kor	-11.627
▁échapper	-11.6273
▁perdant	-11.6273
▁séparées	-11.6274
1994	-11.6276
▁réorganisation	-11.6276
▁contreforts	-11.6278
▁traitements	-11.6279
▁geste	-11.6281
▁1979.	-11.6281
formation	-11.6282
▁lunaire	-11.6282
▁fondent	-11.6282
▁grecs	-11.6284
▁cyclo	-11.6284
▁Hubert	-11.6286
▁spectre	-11.6286
roc	-11.6288
Islam	-11.6288
onien	-11.6289
gnac	-11.6289
▁restaurants	-11.629
Dieu	-11.6291
▁Neuf	-11.6292
▁Rec	-11.6293
▁signalé	-11.6293
ngel	-11.6294
▁Ernst	-11.6294
▁Ahmed	-11.6295
bré	-11.6295
allo	-11.6296
▁purement	-11.6296
pren	-11.6298
▁tar	-11.6298
▁quantités	-11.63
oreille	-11.63
▁pluies	-11.63
ouille	-11.6302
▁botaniste	-11.6303
cata	-11.6304
bad	-11.6304
OL	-11.6307
▁Baz	-11.6309
▁mécaniques	-11.6311
▁qualifiées	-11.6311
▁devance	-11.6312
▁subdivision	-11.6312
▁pêcheurs	-11.6312
▁accessibles	-11.6315
▁lyonnais	-11.6317
ingénierie	-11.632
▁Malheureusement	-11.632
▁pourcentage	-11.632
ude	-11.6321
▁Herbert	-11.6322
▁affilié	-11.6324
éloge	-11.6325
▁réaliste	-11.6326
éruption	-11.6329
▁buste	-11.6329
8.	-11.6329
lich	-11.6329
èdre	-11.6329
▁Key	-11.6333
activités	-11.6337
▁exercé	-11.6337
▁1812	-11.6337
▁61	-11.634
▁Roc	-11.634
▁pe	-11.6341
▁Scho	-11.6344
▁byzantine	-11.6344
▁Horn	-11.6345
▁pandémie	-11.6346
▁livret	-11.6347
pho	-11.6348
iki	-11.6348
▁ignore	-11.635
▁lourdes	-11.635
étale	-11.6354
kra	-11.6356
▁Loiret	-11.6359
▁mesurent	-11.6359
▁camion	-11.6359
Arn	-11.636
▁prestigieuse	-11.6363
▁Vert	-11.6364
▁Fres	-11.6364
1945	-11.6366
▁Fille	-11.6367
Clair	-11.6369
tore	-11.637
▁responsabilités	-11.6372
▁Arm	-11.6373
Maurice	-11.6374
▁magie	-11.6374
▁pédagogique	-11.6376
nning	-11.6376
▁Séville	-11.6377
▁empereur	-11.6377
▁Hur	-11.6379
▁rejeté	-11.6379
▁anarchiste	-11.638
▁express	-11.638
▁pleinement	-11.638
wy	-11.6381
▁Eurovision	-11.6383
▁vive	-11.6384
rze	-11.6384
▁finance	-11.6385
apo	-11.6386
lius	-11.6387
▁humoristique	-11.6388
▁procède	-11.6388
andro	-11.6388
▁hospitalier	-11.6388
asile	-11.6389
▁résistant	-11.6391
▁HMS	-11.6391
▁résidents	-11.6392
▁Shan	-11.6393
escadron	-11.6396
▁Tribunal	-11.6397
▁nécessairement	-11.6397
▁naturaliste	-11.6397
ema	-11.6397
▁Kent	-11.6399
atta	-11.6399
▁spécifiquement	-11.6401
▁Ful	-11.6402
▁béni	-11.6402
▁audio	-11.6402
▁candidate	-11.6403
▁huile	-11.6405
▁reproduit	-11.6406
▁Tchécoslovaquie	-11.6409
▁1820	-11.641
▁Canadiens	-11.6412
assemblage	-11.6414
▁opéré	-11.6415
▁Celles	-11.6416
▁fasse	-11.6417
▁Fribourg	-11.6417
▁ottomane	-11.6418
mot	-11.6418
Auvergne	-11.6418
▁Heures	-11.6419
▁architectural	-11.6422
▁contribuer	-11.6423
▁notaire	-11.6424
▁abondante	-11.6425
▁artificiel	-11.6426
▁tirée	-11.6426
▁avons	-11.6426
HS	-11.6427
▁Wang	-11.6427
▁CA	-11.6427
▁acides	-11.6427
▁couloir	-11.6431
▁honoraire	-11.6431
▁offrent	-11.6432
▁bretonne	-11.6432
▁Kre	-11.6433
pus	-11.6433
är	-11.6436
▁clos	-11.6436
▁1795	-11.6436
▁réputée	-11.6437
stone	-11.6437
moi	-11.6437
naient	-11.6438
▁champignons	-11.6438
▁instance	-11.6439
▁disposait	-11.644
▁Rem	-11.644
élan	-11.644
lice	-11.6442
▁Rab	-11.6443
ologiques	-11.6443
▁Pape	-11.6445
voi	-11.6445
▁diffuser	-11.6446
ident	-11.6446
oso	-11.6446
centre	-11.6446
▁Raw	-11.6448
▁mobilisation	-11.6448
▁Dub	-11.6449
▁77	-11.6451
èce	-11.6451
▁1945.	-11.6452
nommé	-11.6453
▁Marvel	-11.6453
▁réparation	-11.6454
▁bec	-11.6455
écoule	-11.6455
Rouge	-11.6456
▁planté	-11.6456
SG	-11.6457
▁cheminée	-11.6457
igno	-11.6458
olf	-11.6461
▁1794	-11.6463
bos	-11.6463
égu	-11.6463
▁joie	-11.6467
aîné	-11.6469
hō	-11.6469
▁Stefan	-11.6469
▁tubes	-11.647
▁indo	-11.6471
rer	-11.6471
nelles	-11.6474
▁Tsu	-11.6474
▁bétail	-11.6475
▁antiques	-11.6477
wing	-11.6477
▁menés	-11.6477
emparer	-11.6478
gnon	-11.6479
hin	-11.648
mouche	-11.6481
hier	-11.6482
▁Léo	-11.6483
▁Maj	-11.6484
affirmation	-11.6486
kal	-11.6491
lash	-11.6491
▁conversation	-11.6491
aph	-11.6493
▁arriva	-11.6495
adapt	-11.6495
▁essentiel	-11.6497
cine	-11.6498
iaux	-11.6498
▁collaboré	-11.65
▁Melbourne	-11.65
illac	-11.6503
Côte	-11.6503
▁1940.	-11.6504
▁Trou	-11.6505
ery	-11.6506
▁Province	-11.6507
▁radicale	-11.6509
▁Stuart	-11.651
▁Field	-11.6511
mobil	-11.6512
Siège	-11.6512
▁Travail	-11.6514
▁rétabli	-11.6514
▁rappelé	-11.6515
▁master	-11.6516
▁Wy	-11.6517
▁téléphonique	-11.6517
▁afro	-11.6518
assistant	-11.6518
allée	-11.652
▁renseignements	-11.652
dji	-11.6521
▁fondations	-11.6523
▁°	-11.6523
▁sonde	-11.6524
gag	-11.6527
▁votes	-11.6528
▁marron	-11.6529
▁attestée	-11.653
mise	-11.6533
▁entrant	-11.6534
▁observer	-11.6534
▁obtenant	-11.6534
rev	-11.6538
▁tronc	-11.6541
▁exemplaire	-11.6541
▁limitrophe	-11.6542
boul	-11.6542
place	-11.6542
homo	-11.6543
▁célébrer	-11.6543
▁complexité	-11.6543
▁chanoine	-11.6544
▁Kelly	-11.6545
▁Vent	-11.6546
aube	-11.6547
usement	-11.6547
NC	-11.655
▁Express	-11.655
▁lentement	-11.655
herb	-11.6551
▁cirque	-11.6552
▁1932,	-11.6553
▁réalisant	-11.6553
▁erreurs	-11.6554
Bel	-11.6554
▁placées	-11.6554
plat	-11.6555
▁1968.	-11.6555
▁1976.	-11.6555
amen	-11.6555
jusqu	-11.6556
▁plats	-11.6556
roman	-11.6557
▁Burn	-11.6557
▁1,5	-11.656
▁assurant	-11.656
roll	-11.6564
écoute	-11.6566
Adam	-11.6568
▁1849	-11.6568
▁Cos	-11.6569
▁Cook	-11.657
▁Gros	-11.6571
▁intellectuels	-11.6572
lles	-11.6572
▁récent	-11.6573
▁Bil	-11.6575
▁piscine	-11.6578
▁Brook	-11.6579
▁sévère	-11.658
▁occidentales	-11.6581
▁angles	-11.6581
▁1845	-11.6581
faire	-11.6583
gren	-11.6584
méth	-11.6584
▁découverts	-11.6585
▁temporairement	-11.6585
▁styles	-11.6586
humidité	-11.6587
▁76	-11.6587
▁dissous	-11.6587
puis	-11.6589
tir	-11.6589
ulaire	-11.6589
▁auront	-11.6589
nge	-11.659
▁Dau	-11.6591
▁debout	-11.6595
▁chanté	-11.6595
annexion	-11.6595
▁dictature	-11.6595
érable	-11.6596
▁Chau	-11.6596
affect	-11.6597
▁suites	-11.6599
dol	-11.6599
▁modifie	-11.6602
▁confluence	-11.6604
Administration	-11.6604
▁villageois	-11.6607
ters	-11.6607
▁apprécie	-11.6607
▁Greg	-11.6608
▁tibétain	-11.6609
▁marée	-11.6611
erreur	-11.6612
▁prouver	-11.6612
▁1971.	-11.6615
jet	-11.6615
▁diplomatiques	-11.6616
▁horizontale	-11.6616
gir	-11.6616
▁88	-11.6619
À	-11.6619
▁gang	-11.6619
hélicoptère	-11.662
agression	-11.6622
▁congé	-11.6622
▁franchir	-11.6623
▁caisse	-11.6623
Angers	-11.6624
pers	-11.6625
▁nœuds	-11.6625
AE	-11.6626
▁Gua	-11.6629
▁Archives	-11.663
▁enregistrés	-11.6632
▁tabac	-11.6632
▁adopter	-11.6632
▁1920.	-11.6633
iot	-11.6635
▁favoris	-11.6636
▁appuyé	-11.6639
▁détriment	-11.6639
dix	-11.6639
▁amant	-11.6639
exportation	-11.664
▁collectionneur	-11.664
pou	-11.664
ances	-11.6641
▁Mik	-11.6641
▁74	-11.6643
phi	-11.6644
▁autrement	-11.6644
▁Old	-11.6644
idé	-11.6644
▁Motor	-11.6645
▁cercles	-11.6647
▁vivants	-11.6647
▁diminué	-11.6648
▁repéré	-11.6648
stique	-11.6649
19,	-11.665
▁1975.	-11.6653
oki	-11.6653
▁chapitres	-11.6653
▁arménien	-11.6654
▁Régime	-11.6655
omin	-11.6655
▁Issu	-11.6656
▁déclarée	-11.6656
▁poussé	-11.6656
inte	-11.6657
▁Cooper	-11.6657
▁acheter	-11.6657
▁réfère	-11.6657
▁fondamentale	-11.6658
▁grès	-11.6658
▁Wel	-11.6659
▁biodiversité	-11.6665
▁figurant	-11.6665
anus	-11.667
▁1924,	-11.667
▁originales	-11.6673
▁comédien	-11.6674
intersection	-11.6675
▁Covid	-11.6675
▁doré	-11.6676
sko	-11.6678
fle	-11.6678
▁Gué	-11.6678
NS	-11.6679
ambi	-11.6679
▁Meilleur	-11.668
Arles	-11.668
▁effectif	-11.6681
▁Johan	-11.6681
exprime	-11.6681
▁1973.	-11.6681
▁appartement	-11.6682
▁Abdel	-11.6682
▁électroniques	-11.6683
▁souverains	-11.6683
Land	-11.6683
Emmanuel	-11.6684
oka	-11.6685
▁Gary	-11.669
▁ravitaillement	-11.6692
hebdomadaire	-11.6693
ortho	-11.6695
▁ajoutant	-11.6696
▁protégés	-11.6697
lut	-11.6697
tral	-11.6699
▁1806	-11.6699
▁défenseurs	-11.6701
▁récents	-11.6701
▁israélienne	-11.6701
▁tribunaux	-11.6701
connu	-11.6702
▁terrasse	-11.6704
▁Sav	-11.6705
▁renforcée	-11.6705
zie	-11.6705
▁registres	-11.6705
▁Voie	-11.6707
▁algérienne	-11.6708
▁restait	-11.6708
▁perçu	-11.6708
▁Secrétaire	-11.6709
rh	-11.671
▁défilé	-11.671
▁bulletin	-11.671
▁gène	-11.6711
▁costume	-11.6711
▁Bod	-11.6711
▁haine	-11.6712
▁brut	-11.6713
ouff	-11.6714
▁Burg	-11.6716
▁attentats	-11.6716
géni	-11.6717
▁millénaire	-11.6718
▁Tin	-11.6719
Sainte	-11.6719
▁résultant	-11.672
▁Math	-11.6721
▁cérémonies	-11.6722
rica	-11.6723
▁remparts	-11.6724
▁Louvain	-11.6727
▁Dream	-11.6728
▁84	-11.6729
épouser	-11.6731
fig	-11.6733
▁télévisées	-11.6734
▁bel	-11.6738
▁imposée	-11.6738
▁géologique	-11.6738
▁Chu	-11.674
▁aînée	-11.674
orient	-11.6742
▁Ara	-11.6742
▁austro	-11.6742
▁Bush	-11.6743
▁Hau	-11.6743
▁fabriquer	-11.6744
épaule	-11.6744
dore	-11.6744
▁mosaïque	-11.6744
▁Colo	-11.6747
▁voûtes	-11.6748
bey	-11.6748
▁logistique	-11.6748
mène	-11.6749
▁acier	-11.6749
▁Kho	-11.675
thal	-11.675
▁opérationnelle	-11.6753
employeur	-11.6753
▁Arrivé	-11.6753
▁discrimination	-11.6755
▁acoustique	-11.6755
▁décline	-11.6756
▁trouvés	-11.6756
nels	-11.6761
▁acceptée	-11.6761
rah	-11.6762
▁Baron	-11.6763
▁Law	-11.6764
▁toucher	-11.6768
▁Jos	-11.677
▁Kel	-11.6772
Pl	-11.6773
▁missionnaires	-11.6776
▁sorties	-11.6777
arm	-11.6778
1990	-11.6779
▁Sei	-11.6779
PI	-11.6781
▁Social	-11.6781
▁gravité	-11.6782
▁délégués	-11.6783
▁planification	-11.6786
▁sponsor	-11.6786
▁1934,	-11.6788
▁Musique	-11.6788
approbation	-11.6789
▁écriture	-11.6791
itch	-11.6792
▁Fen	-11.6793
som	-11.6794
▁Harvard	-11.6798
▁céder	-11.6799
▁Franklin	-11.6801
▁1832	-11.6801
▁importé	-11.6802
écri	-11.6802
▁Aix	-11.6803
aval	-11.6804
embra	-11.6807
Olympia	-11.6809
▁chanteurs	-11.6809
▁visuelle	-11.681
iba	-11.681
▁fichier	-11.681
▁vacant	-11.681
▁Bade	-11.6811
strat	-11.6814
▁combustible	-11.6815
▁marketing	-11.6815
▁Hin	-11.6816
zhou	-11.6817
émetteur	-11.6817
issait	-11.6818
Az	-11.6819
put	-11.6821
▁venger	-11.6822
product	-11.6822
▁Plou	-11.6824
▁visiter	-11.6825
ouri	-11.6826
▁opposants	-11.6826
▁exilé	-11.6827
▁Nicole	-11.6828
Qu	-11.6831
▁crainte	-11.6832
▁verts	-11.6833
▁scolarité	-11.6833
ajouter	-11.6834
▁Lui	-11.6835
▁librement	-11.6835
rab	-11.6837
posit	-11.6837
▁précédé	-11.6838
▁Cross	-11.6838
ambre	-11.6838
▁aboli	-11.6839
▁Chap	-11.6839
lau	-11.684
▁wallonne	-11.6841
▁virage	-11.6841
▁recrute	-11.6842
▁héritage	-11.6842
tari	-11.6842
▁macro	-11.6843
▁chants	-11.6843
▁asiatique	-11.6843
▁romaines	-11.6843
▁78	-11.6843
▁pèse	-11.6844
▁étroitement	-11.6844
▁sexuel	-11.6845
▁juives	-11.6845
▁incorporé	-11.6846
▁agence	-11.685
▁repêchage	-11.6851
lf	-11.6851
▁variés	-11.6853
▁Jazz	-11.6855
▁Sher	-11.6858
iza	-11.6859
▁arbitre	-11.686
gation	-11.686
▁Copenhague	-11.686
▁inverse	-11.6861
▁Pietro	-11.6861
▁1831	-11.6863
▁dépendance	-11.6867
ao	-11.6868
celles	-11.6869
▁Salomon	-11.6869
vot	-11.6871
▁camarades	-11.6871
▁Adolphe	-11.6876
▁Up	-11.6876
▁assis	-11.6876
▁Time	-11.6877
▁conc	-11.6877
▁Marcus	-11.6877
shin	-11.6878
Azur	-11.6878
▁2"	-11.6879
▁cultivé	-11.688
rik	-11.6881
stad	-11.6881
▁renforcé	-11.6882
▁synonyme	-11.6883
▁Tandi	-11.6886
▁exposés	-11.6887
▁mystique	-11.6887
▁Cercle	-11.6888
dieu	-11.689
cup	-11.6892
▁serveur	-11.6892
▁salut	-11.6893
▁dramaturge	-11.6896
▁pétition	-11.6896
▁médaillé	-11.6898
▁boutique	-11.6898
▁Lion	-11.6898
▁Mach	-11.6899
▁Pho	-11.69
ièvre	-11.6902
▁avancée	-11.6902
▁Fil	-11.6902
▁Mess	-11.6902
▁recommandé	-11.6905
exploitant	-11.6905
▁sensation	-11.6907
totalité	-11.6909
▁Blois	-11.691
▁Gol	-11.6912
▁consacrés	-11.6912
▁Barry	-11.6914
▁navigateur	-11.6914
▁incident	-11.6914
▁annulé	-11.6916
▁plongée	-11.6916
▁inédite	-11.6916
▁1835	-11.6918
▁saga	-11.6918
neux	-11.6918
▁dôme	-11.692
For	-11.692
Der	-11.6921
▁refusa	-11.6923
▁convainc	-11.6924
morphisme	-11.6924
▁vérifier	-11.6925
▁lyrique	-11.6925
CF	-11.6925
▁recteur	-11.6926
▁théologien	-11.6926
▁investissements	-11.6926
▁visites	-11.6928
1992	-11.6929
▁attaquant	-11.693
odeur	-11.6931
▁intermédiaires	-11.6931
bir	-11.6932
▁Dunkerque	-11.6932
▁Tennessee	-11.6932
▁fallait	-11.6932
▁sacre	-11.6932
▁Murray	-11.6933
cell	-11.6934
onia	-11.6936
Liber	-11.6937
▁1/	-11.6939
▁regroupés	-11.6939
gger	-11.694
▁Mississippi	-11.6941
ambiance	-11.6942
accession	-11.6943
▁théâtrale	-11.6943
1918	-11.6943
illusion	-11.6944
▁tueur	-11.6944
sim	-11.6946
▁côtière	-11.6947
▁empire	-11.6947
▁urbaines	-11.6948
Ser	-11.6949
▁Églises	-11.6949
▁Massa	-11.695
▁consistant	-11.695
▁hôtels	-11.6957
dium	-11.6958
▁Copa	-11.6959
▁Antilles	-11.696
angé	-11.6963
▁fragment	-11.6964
neuve	-11.6964
▁norvégienne	-11.6965
▁Fré	-11.6965
▁détection	-11.6968
▁banquier	-11.6968
▁accusations	-11.697
▁difficilement	-11.6972
enstein	-11.6974
attitude	-11.6976
▁inondations	-11.6976
▁1853	-11.6977
▁quelconque	-11.6977
▁sentier	-11.6977
maire	-11.6978
▁Chev	-11.6978
▁Acc	-11.6981
▁Saône	-11.6982
▁Om	-11.6984
▁CO	-11.6985
▁tragédie	-11.6986
nig	-11.6987
▁Créé	-11.6988
▁abouti	-11.6989
vaux	-11.6989
▁hôte	-11.699
matri	-11.6992
▁mortalité	-11.6994
Québec	-11.6995
étudier	-11.6995
Guinée	-11.6995
▁Alberto	-11.6996
▁tellement	-11.6996
▁99	-11.7
▁play	-11.7004
mage	-11.7004
oncle	-11.7006
▁trahison	-11.7006
▁réédition	-11.7011
expérimentation	-11.7013
▁processeur	-11.7013
▁chronologique	-11.7013
Petit	-11.7015
éga	-11.7015
▁culmine	-11.7016
▁jeudi	-11.7017
épine	-11.7017
▁légendes	-11.702
▁Cord	-11.7021
▁2,5	-11.7021
▁Village	-11.7023
▁Forêt	-11.7024
▁exercer	-11.7025
▁édifié	-11.7025
▁Guyane	-11.7025
arro	-11.7025
saxon	-11.7026
▁Frères	-11.7026
▁69	-11.7026
▁Étant	-11.7026
▁metteur	-11.7027
▁exploite	-11.7027
ensuit	-11.7028
FL	-11.7028
▁bloqué	-11.7032
▁1967.	-11.7033
▁entraîner	-11.7034
▁Casa	-11.7036
▁prospérité	-11.7041
▁Lamb	-11.7042
▁basés	-11.7044
Ve	-11.7044
grave	-11.7046
combe	-11.7046
FM	-11.7047
▁faubourg	-11.705
▁Namur	-11.705
▁ibn	-11.7052
International	-11.7054
dt	-11.7054
ride	-11.7055
▁classements	-11.7057
▁Mod	-11.7059
▁extraits	-11.7061
▁gravé	-11.7062
0%	-11.7064
▁séjourne	-11.7065
▁bataillons	-11.7067
onie	-11.7067
▁embarqué	-11.7068
▁moléculaire	-11.7068
▁originaux	-11.7068
▁barème	-11.707
▁98	-11.7076
▁triangulaire	-11.7077
▁comitat	-11.7077
Bra	-11.7077
tang	-11.7077
élu	-11.7078
▁identifiée	-11.708
▁libertés	-11.7084
▁Anvers	-11.7084
▁fragile	-11.7086
▁annuellement	-11.7087
TI	-11.7088
▁fortifiée	-11.7089
invention	-11.7091
▁96	-11.7092
▁Andy	-11.7093
▁habituel	-11.7093
▁documentation	-11.7093
Anvers	-11.7093
▁Pad	-11.7094
▁chroniques	-11.7095
▁légumes	-11.7095
érosion	-11.7096
▁Breton	-11.7097
▁Bré	-11.7098
▁cavaliers	-11.7099
▁géographiques	-11.7102
▁basées	-11.7102
▁mol	-11.7102
▁dessine	-11.7103
igan	-11.7103
în	-11.7103
▁régulation	-11.7105
▁senior	-11.7105
▁XVIII	-11.7105
git	-11.7106
▁alimenté	-11.7106
▁Billboard	-11.7106
lez	-11.711
▁Philipp	-11.711
▁protecteur	-11.7114
▁végétaux	-11.7114
▁Mercedes	-11.7114
enfuit	-11.7114
▁Recherche	-11.7114
▁Chartres	-11.7115
connect	-11.7116
▁1847	-11.7117
RO	-11.7119
▁retable	-11.7119
▁rétablir	-11.7119
▁Syndicat	-11.712
▁décisif	-11.7123
▁Caraïbes	-11.7123
▁négatif	-11.7124
▁agences	-11.7124
▁Roberto	-11.7126
▁plateaux	-11.7129
obstacles	-11.713
▁navette	-11.7132
▁annoncent	-11.7133
▁esprits	-11.7136
iger	-11.7136
▁privilèges	-11.7136
▁Grands	-11.7138
Bre	-11.7138
▁Gustav	-11.7139
▁Arch	-11.714
aïa	-11.7141
▁collègue	-11.7142
▁protestant	-11.7143
▁ukrainien	-11.7143
▁séquences	-11.7145
pont	-11.7145
jeu	-11.7147
envoi	-11.7148
DC	-11.7149
▁gènes	-11.715
▁relevé	-11.7151
▁confédération	-11.7151
▁précède	-11.7151
▁monarque	-11.7151
▁piège	-11.7151
▁japonaises	-11.7152
▁1837	-11.7154
▁Major	-11.7158
▁73	-11.7159
▁crédité	-11.7159
onyme	-11.7159
ouvrages	-11.716
▁cahier	-11.716
▁batteries	-11.716
crit	-11.7161
_6	-11.7161
osité	-11.7162
ligne	-11.7164
▁fine	-11.7165
kes	-11.7168
▁Hautes	-11.7168
empreinte	-11.7168
▁coupes	-11.7168
▁conservant	-11.7169
▁consultant	-11.717
dja	-11.7171
▁prestations	-11.7171
▁royaumes	-11.7176
aoui	-11.7177
opportunité	-11.7177
▁réels	-11.7178
▁défensive	-11.7179
▁1969.	-11.7179
lom	-11.718
▁négociant	-11.718
":	-11.718
▁lion	-11.7181
▁Great	-11.7182
mbri	-11.7182
▁82	-11.7183
▁employée	-11.7183
italien	-11.7185
▁quantique	-11.7185
ONG	-11.7186
indication	-11.7187
envoyer	-11.7187
moteur	-11.7188
usse	-11.7188
▁autorisés	-11.7189
nium	-11.7192
▁aventure	-11.7196
▁concernés	-11.7197
▁Crimée	-11.7197
▁diesel	-11.7197
▁Buck	-11.7198
▁Baie	-11.72
péri	-11.72
▁natal	-11.7203
▁pin	-11.7203
▁Mann	-11.7206
▁Matthew	-11.7206
▁abri	-11.7207
▁coll	-11.7207
EF	-11.7208
▁avancées	-11.7208
▁vecteur	-11.7208
▁Challenge	-11.721
▁présentées	-11.7213
excellence	-11.7215
▁considération	-11.7215
▁gendarmerie	-11.7215
iso	-11.7216
▁signaux	-11.7216
▁italiennes	-11.7217
▁centrée	-11.7219
tten	-11.722
▁veine	-11.7221
▁axes	-11.7222
▁Charlemagne	-11.7225
▁Danube	-11.7225
▁habitat	-11.7227
Archi	-11.7228
»,	-11.7228
▁plaines	-11.7229
▁ST	-11.7229
Ir	-11.723
▁Susan	-11.7234
Indochine	-11.7234
▁musulman	-11.7235
▁Frederick	-11.7236
▁Dio	-11.7238
quis	-11.7241
NO	-11.7241
▁bénéficient	-11.7241
▁am	-11.7242
▁déroulant	-11.7242
▁enlevé	-11.7245
rène	-11.7245
ć	-11.7247
▁Gay	-11.7248
▁dose	-11.7248
▁divine	-11.7251
ceau	-11.7251
▁Yang	-11.7252
▁révéler	-11.7252
▁rumeurs	-11.7253
mér	-11.7253
entourage	-11.7254
éta	-11.7255
oda	-11.7256
tienne	-11.7258
ival	-11.7259
▁déclenchement	-11.726
ML	-11.726
▁Glasgow	-11.7262
▁wallon	-11.7264
▁1842	-11.7265
▁rappelant	-11.7265
loc	-11.7268
égide	-11.7268
▁favori	-11.7269
adjoint	-11.7271
▁procession	-11.7272
UD	-11.7273
▁supporters	-11.7273
anth	-11.7274
gos	-11.7275
▁extérieures	-11.7276
▁médi	-11.7276
échelon	-11.728
▁initié	-11.7281
▁prieur	-11.7281
▁commerces	-11.7281
urine	-11.7282
▁Panama	-11.7282
▁assume	-11.7283
▁distincts	-11.7287
illot	-11.7288
ław	-11.729
▁Seattle	-11.729
til	-11.729
▁Fun	-11.729
say	-11.7291
bout	-11.7293
xa	-11.7293
▁Ensemble	-11.7293
Alaska	-11.7294
▁Troyes	-11.7297
▁Ala	-11.7297
bras	-11.7297
▁solides	-11.7297
▁fondamental	-11.7298
▁Brabant	-11.7299
▁fins	-11.73
▁donnait	-11.73
▁Mit	-11.7301
▁remontant	-11.7303
▁pause	-11.7304
▁traction	-11.7304
▁Helen	-11.7306
rienne	-11.7306
worth	-11.7307
cott	-11.7307
▁diffusés	-11.7307
▁trajectoire	-11.7308
▁adolescents	-11.7309
enfuir	-11.7309
▁Dallas	-11.7309
▁extrême	-11.7311
▁jaunes	-11.7311
▁loup	-11.7311
▁extérieurs	-11.7311
▁composant	-11.7312
▁comparé	-11.7314
▁comtés	-11.7314
▁Brad	-11.7314
oi	-11.7315
occupant	-11.7316
lama	-11.7316
zier	-11.7316
▁adverse	-11.7318
oriente	-11.7318
appr	-11.7319
nam	-11.7319
▁égalité	-11.732
Iowa	-11.732
Gre	-11.7322
cr	-11.7324
reg	-11.7324
▁soumise	-11.7327
▁1931,	-11.7327
▁Krist	-11.7328
▁transmettre	-11.7328
uze	-11.7331
▁escalier	-11.7332
▁spécimens	-11.7333
éenne	-11.7333
jin	-11.7333
tura	-11.7333
anes	-11.7335
▁localisé	-11.7337
300	-11.7338
Pan	-11.7338
statique	-11.734
▁comics	-11.7341
laine	-11.7341
▁Conrad	-11.7343
▁Isaac	-11.7344
▁FM	-11.7344
▁platine	-11.7346
▁Marshall	-11.7346
égi	-11.7347
trop	-11.7349
▁immédiat	-11.735
▁refusent	-11.7351
▁Arnaud	-11.7352
▁Light	-11.7352
Ost	-11.7353
Pol	-11.7353
▁Parker	-11.7354
apparaît	-11.7354
eo	-11.7354
live	-11.7355
▁ascension	-11.7355
▁Poul	-11.7355
▁résidu	-11.7355
gna	-11.7357
▁Adrien	-11.7358
▁fiable	-11.7359
africaine	-11.7359
ague	-11.736
▁comportements	-11.736
▁démontrer	-11.7363
▁lancent	-11.7363
▁isolé	-11.7366
▁Luigi	-11.7367
NE	-11.7367
▁Pod	-11.7369
▁relevant	-11.7369
▁longe	-11.7369
▁Sporting	-11.7369
Barb	-11.737
nçant	-11.737
▁envisagé	-11.7372
▁permanence	-11.7374
▁Habsbourg	-11.7374
▁manteau	-11.7376
▁éliminer	-11.7377
▁Liu	-11.7377
▁Bot	-11.7378
tac	-11.7379
Oran	-11.738
▁exposées	-11.7381
▁nez	-11.7383
[...]
